/**
  ******************************************************************************
  * @file    network_data.c
  * @author  AST Embedded Analytics Research Platform
  * @date    2026-02-27T13:03:50+0100
  * @brief   AI Tool Automatic Code Generator for Embedded NN computing
  ******************************************************************************
  * Copyright (c) 2026 STMicroelectronics.
  * All rights reserved.
  *
  * This software is licensed under terms that can be found in the LICENSE file
  * in the root directory of this software component.
  * If no LICENSE file comes with this software, it is provided AS-IS.
  ******************************************************************************
  */

#include "network_data.h"
STAI_ALIGNED(8)
const uint64_t g_network_weights_array[6914] = {
  0x3e4af7d53f4e281cU, 0xbddba6753f57c936U, 0xbed401b4bf274b9aU, 0xbdb3937e3f075f6cU,
  0x3f4fbce23f32f12fU, 0xbdecd02dbf62e6eaU, 0x3d1405623ea35fa4U, 0x3ddf356e3efff30eU,
  0xbe8d9369bd6afd65U, 0xbb9f0121be4a87b4U, 0xbd1690a4bd8069ffU, 0xbe1cd4fa3e054d86U,
  0xbe81cbafbe8edab2U, 0x3e0f94963da943a7U, 0x3e445da6be6b48d6U, 0x3e497795bd19e1b5U,
  0x3dc95c3abe285b52U, 0x3e448a973cfba0e9U, 0x3d4997563aa1529eU, 0x3c8ec8a1be933b89U,
  0xbd909b8a3e0d0b20U, 0xbdb3de953dc90239U, 0x3e8cd94bbd052841U, 0x3dc0a8c5bc657928U,
  0x3b329b713c0e7de0U, 0x3e604318bcdb1c22U, 0xbd47cb66bd1e454dU, 0x3edc48f7bd48c06eU,
  0x3cd23bedbdbd2cecU, 0x3d9cd452bcd66c02U, 0x3df6bf08bea8cf39U, 0x3dbd26523e3951deU,
  0xbc0691adbea6ff9bU, 0x3def7599bb8f03f7U, 0xbe3cc34fbda275c6U, 0xbcd8cc793e0b2d83U,
  0xbc6791963e2eb78cU, 0xbd8c54203d294ba0U, 0x3e899d52bd79f3a6U, 0xbd4a51053d0a98a5U,
  0x3c3b48f1be99bcb9U, 0x3de9172c3e3ef802U, 0xbdca67cdbd3d7775U, 0x3e99c6f33de69156U,
  0xbe392f0ebe90e0abU, 0xbe5c28cf3decd093U, 0xbe5cd24fbbff40e8U, 0x3c68332f3e28e29eU,
  0xbd3daf033e27cb43U, 0x3d37ae89bda3a6dcU, 0x3e981b25be0fe814U, 0xbe16a9703e84a59eU,
  0x3d99b740be43d4ceU, 0xbe371cc3bddf5038U, 0x3dbd012bbdf80763U, 0x3e529e53bd373f37U,
  0x3ddac2f73d92b834U, 0x3ce8e8313d0e1115U, 0xbdd537e8be6119ebU, 0xbe41d3283ebb7621U,
  0x3dda4f0c3dffc6e3U, 0x3eb7cf543d8c3cccU, 0xbdbdd4b3bd512836U, 0xbe3648f6bdf6afeeU,
  0xbe26f084be29e159U, 0x3e1c17543d3527d3U, 0xbd187be13d9c8bedU, 0x3d91dcb63de35892U,
  0xbb67d370bd32b27dU, 0x3d2ba88b3e1f9584U, 0xbcd197b13c8b9391U, 0xbc8baa7c3dbdb769U,
  0xbd839903bd8b27e5U, 0x3f1f1a4fbe14efceU, 0x3d26f9ccbfe728bcU, 0x3dfbdecbbefcf46bU,
  0x3d5435553f1222f4U, 0xbb6452d43ea47630U, 0xbd2ee149bef4b594U, 0x3e0620e3be93916dU,
  0xbd637821bedb3cbcU, 0xbddd699e3be3e5e7U, 0x3ce904aa3c34a358U, 0xbcd25eb8bbbd9678U,
  0xbcbcb4abbd39f8b6U, 0x3c33ca67bd34c1b6U, 0xbd8defc7bb88dcc3U, 0x3c283524bdefc779U,
  0xbd7ef6423d95d1b3U, 0x3c6973a33cb816e6U, 0xbced867e3d3f7d74U, 0x3d43d021bd99ebeaU,
  0x3c37bc80bcbbeaaeU, 0x3d6b7f363d31e31cU, 0xbd9a8005bd989df1U, 0xbd06a204bd9a4603U,
  0xbca89de9bd4b286fU, 0x3d31105f3c945067U, 0x3c061434bd3eb3c4U, 0x3d4f52f0bbed182aU,
  0xbc7e5d1a3c8f561dU, 0xbd2f714fbd97aa02U, 0x3d0bb246bc6c7947U, 0xbdfc8b9a3d13ec9fU,
  0x3c513c75bc23701eU, 0xbdabc7363d8f0edfU, 0xbd421fb53dbf5cc7U, 0x3ceb2a6d3cd35187U,
  0xbd756ac9bd37492fU, 0xbdf4203cbd8df1fbU, 0x3d0e531a3cdf3914U, 0xbd91cbd9bc94e575U,
  0xbc4add243ddf6d85U, 0xbd96f69e3c588c52U, 0x3c8f45a3bde90f84U, 0x3d89d43d3d1a04dbU,
  0xbd19b6cebcf6232bU, 0xbccb4dec3d10953dU, 0x3d74bf2e3b0696f7U, 0xbd5088103cbf3108U,
  0xbd5e927abd08d531U, 0x3d0d85273dd59b64U, 0xbe0a6a273c06c529U, 0x3d3ae368bc1fa468U,
  0xbda8dfb5bd1acf95U, 0x3b97e8c03d15da7cU, 0xbd7c12e0bcf85b21U, 0xbd4ba4043cb182c9U,
  0x3cc1b0eabd90f792U, 0xbd3bfb5e3d0dd6c4U, 0xbd3869423d2cb1f1U, 0x3a8e69043d6f3b6fU,
  0x3dae9994bd5a66b5U, 0x3d37148f3ca805d3U, 0xbd756b49bd51c730U, 0x3d858def3c0d6d67U,
  0x3d162dbe3cd35424U, 0xbd32ac5e3e03fbd5U, 0x3d6d47f3bbb9adafU, 0xbd7dcd8a3d3f36ebU,
  0xbd0fc56a3d697834U, 0xbdbd82dd3e1baef4U, 0xbd8bf4013c248536U, 0xbc9cc91e3e0df101U,
  0xbe10c193bdc31f45U, 0x395c18013df40765U, 0x3d9d26c0be5b1876U, 0x3e32d379be0d7918U,
  0x3ec8e2553c51e4e4U, 0x3e0bcf64beb55d39U, 0xbf0191d53f01e003U, 0x3e824617bf038d68U,
  0xbe3553063d941aabU, 0xbb84f8a7be661f7cU, 0xbe86cc083de3bc41U, 0x3e40bbda3e8f04b2U,
  0xbe7936eebdef561eU, 0xbca74c11bcf37fcdU, 0xbeaa0d51bd909fd7U, 0x3d9e13333d796948U,
  0xbdc39069bd74923bU, 0xbc3bc6693dc0b851U, 0xbdaa4735bdcd02a4U, 0x3e2b9353bd217825U,
  0x3ddf4794be2860ebU, 0x3e730f643ba5fecaU, 0xbd3d6052bdb1654fU, 0xbdc7782bbda56b48U,
  0xbd09a533be2a9b23U, 0x3e8bc4de3eccccfdU, 0xbcd0f5183dd3405dU, 0x3da709b5bdf4f34aU,
  0xbd2840a7bdb1783eU, 0xbd2d6299bc827b99U, 0x3d446b413e0bbbaeU, 0x3dcf5d2d3df2eeaaU,
  0xbe4a84b4bd96efa3U, 0xbe0e896f3e13eeedU, 0x3e0d71debe3c975dU, 0xbd97ef31beb5421eU,
  0xbd6ea7033e2def3eU, 0x3cce70333ea62885U, 0xbe883dedbe0e6f64U, 0x3ea4e5393d815e7cU,
  0xbe00aa1e3dcdfe19U, 0x3dbb0c99bcd20ffdU, 0xbd385c3e3da5ac0dU, 0xbda168d83d9edf46U,
  0x3d1c636a3ded4b6fU, 0x3e831777bdb0ac4bU, 0xbd5c622cbe20acb1U, 0x3ea059a9be27e2f9U,
  0xbe12273b3d5908bbU, 0x3d9186863d4c2e1bU, 0xbe2c9e713dbde48cU, 0x3d1239fb3d6bd0c2U,
  0xbde1d136bde437b5U, 0x3d08f20f3da1b11cU, 0xbd6dc9d8beb215b5U, 0x3dad4517bd9c26d0U,
  0xbd7e9af8bdc10284U, 0x3e4bfbcabe3c0844U, 0xbe9b35513ce11633U, 0x3eaf7c593e0bd65bU,
  0xbe3ec7ffbc386ab2U, 0x3e2488653d372ab9U, 0x3dc00c85be355bb9U, 0x3ea83fda3ebd9ad5U,
  0xbe063e62bea1a779U, 0x3e6cdf16be12b2e3U, 0x3df7ef44bc3b416dU, 0xbe4f725fbd9fd4bcU,
  0xbea4461c3e99d26eU, 0xbc706431be407f6eU, 0xbf195ecbbe26eabdU, 0xbd93778b3c0e37adU,
  0xbd769d6e3dde3a11U, 0xbd123e58bdb2f268U, 0xbddea6ff3e0ab85fU, 0xbd360e81bf041aaeU,
  0xbe01ede03f4764f8U, 0xbe923bbe3f0cc86eU, 0x3d080e68bf708056U, 0x3ed43bfabf2e0b44U,
  0xbbaf2eb33f2f6971U, 0xbec9acc4be9cee8cU, 0x3eabb9a73e618948U, 0xbf582ce9bddf6833U,
  0xbe534cbbbda8e30bU, 0xbda50747bdc11a6bU, 0x3e15a92b3db00e9dU, 0xbe4121b83df3c2acU,
  0x3d00129b3e411cedU, 0xbdde2bf53db7845fU, 0x3e8d60a4bdee7aabU, 0xbcb070243dd797abU,
  0xbcac07933e1585fbU, 0x3e93af27bd84d197U, 0xbe27d425bd86e8f4U, 0xbdac3e973b715ea3U,
  0x3d8265c6bdbad252U, 0xbe2e8fc3bddfecd6U, 0x3dc4cce53cf3e594U, 0x3e0eda5dbcd9b2e8U,
  0xbd86d07f3d4f42c7U, 0xbc195f3a3e0cc9f5U, 0xbd5637783d021d19U, 0x3d132c573ea3c0bfU,
  0xbb42669f3d0f97cbU, 0xbe16fe173e09d4e8U, 0x3cd415db3e6674dcU, 0x3e6e74413cbc1a44U,
  0x3dbda36c3d8b959bU, 0xbdee5852bdc5adffU, 0xbe2cfc0bbd401c3fU, 0x3d0ebd273df1b067U,
  0xbd0231863d1b9f84U, 0x3dfdba5c3ddb9f87U, 0xbc2b8a243d8a98f6U, 0x3e4c79123e846e19U,
  0xbde71ecd3d884876U, 0x3d7db59d3d9e034dU, 0xbe0ab188bee405d1U, 0x3de452da3adf9647U,
  0x3dddea1bbdb59f51U, 0xbdca9ea33eabf51bU, 0xbdaa24223e028a85U, 0x3d01f4803e402aecU,
  0x3df626fb3dab6f6aU, 0xbd2a8aedbe4345d7U, 0xbd889230be786084U, 0x3e6de7723e48641aU,
  0xbdaaf6933e1037ccU, 0x3c254ac5bd8b18b7U, 0xbeb5d27fbca29466U, 0xbcef26993e35016eU,
  0xbdda6638bdcec1c2U, 0x3d4b4ee23b49c583U, 0xbdf7e21c3e04a5f5U, 0x3cb92e64bdfeb216U,
  0xbcc6aa1b3e29aa4cU, 0x3d9561403e47b862U, 0x3c124ff4bc424416U, 0xbd9666ce3d8ec89aU,
  0xbe938e6e3df1cc72U, 0x3e51b9d5bdd302ceU, 0xbe78a616bd77b087U, 0x3e0b58ebbc6fbeeeU,
  0xbe02f6e3be861866U, 0x3e9a76423e502d06U, 0xbe4f83a73d3541feU, 0x3e6fc8023e674d9aU,
  0xc04672e43dc08504U, 0xbee115bbbf38ba3eU, 0xbe75facebb9905caU, 0xbea489fabe9bbc4fU,
  0xbe2160f9be7743c8U, 0xbf1834983f74e8d8U, 0xbf885212bd963df9U, 0x3d79ab53bce01784U,
  0xbd861a64bd14a470U, 0x3ca4fc79bd54077bU, 0xbd43093d3cc012e3U, 0xbc790d7f3cd36215U,
  0x3beb3ff03d01d65fU, 0x3ce1fd5b3b904430U, 0xbd0291fbbca57084U, 0x3cfcf88dbcf531eaU,
  0xbae4d6b0bc8d5a97U, 0xb9f5cff9bd79e3bdU, 0xbd5aa8613d3380c7U, 0x3b969ee3bcdd7ad1U,
  0x39624ba63c0fdccdU, 0xb9e2a97f3d4393a9U, 0x3c857af13d1e66a8U, 0x3d0847f1bd0708b8U,
  0x39f64e28bc46988dU, 0xbcbf31e2bd23fcaaU, 0xbb51ec113c132b00U, 0x3c42204abc4d4f54U,
  0x3d00597c3d163109U, 0x3b376b343b4fd050U, 0x3c94fc4f3d066e56U, 0xbcef2a42bd18af25U,
  0x3d663ec53c8a5188U, 0x3bc2fa33bcf11b42U, 0x3cc436eb3c9ed718U, 0xbd3c99eebbee4d26U,
  0x3c8d3c713d19e905U, 0xbd1c419d3cba7cb8U, 0x3c3c9b413d1a51d8U, 0xbcd3233cbcbe7ed5U,
  0x3d4b63c53c919270U, 0xbd85d0163b7d1fe2U, 0x3c93c93e3c965342U, 0xbbb28fdfbc27930cU,
  0x3d110e2b3bc40304U, 0x3bc620cabba7c329U, 0x3d20b4083d83c392U, 0xbd3fe6e43c150d3dU,
  0x3cf477bc3bf3683eU, 0xbd01770c3cd83ea3U, 0x3d3eb6e33c903124U, 0xbbc13953bbaa2d84U,
  0x3d7538713c99f61bU, 0xbc20c632bcd2c9d1U, 0x3d54b0d73b5ed2a9U, 0xbd20f9f93d1d2dc3U,
  0x3cb2e1983cf16ef2U, 0xbc82f2083c30896fU, 0x3c7f8aea3cc9356bU, 0xbd9b0bdd3d434e2dU,
  0x3d2838553ceab73bU, 0xbd26f05c3c6d40cbU, 0xbc53a40abc6461ffU, 0xbd0e5cc43cbda217U,
  0x3cacfbc4bcc29d68U, 0xbd820dc93cfa9fa1U, 0x3d353d503cec64feU, 0xbd23d18b3cabfee3U,
  0x3cc618af3b956fe9U, 0xbcd22f573d746159U, 0x3c8e16393d131048U, 0xbd72e1cd3ca54507U,
  0x3cec1a643d02ea88U, 0x3ec18e2fbfa13b72U, 0xbd7ffe2ebfca3f40U, 0xbedaf2df3e975028U,
  0x3cb64ce1be02bf51U, 0x3f2ae477bef9bcf4U, 0x3e19f8723f32320bU, 0x3ec7f868bed49e92U,
  0xbd014454bf252683U, 0x3e62a8473ddb279eU, 0xbe6875de3c3275adU, 0x3e5242063e41aee9U,
  0x3da35697bdbdca66U, 0x3d46297bbd89cd08U, 0xbe9d62babe04b3c4U, 0x3e02fd63be3a8620U,
  0x3d991051bcb9eac7U, 0xbd9e0695bb8fc2fcU, 0xbdfbfc8f3d05d0d1U, 0xbd2987e4bbfc7a3aU,
  0x3c6c862dbb10711fU, 0xbe381b2dbe76e555U, 0xbe4d6c62bd0fe0c9U, 0x3d547a803c6d92e6U,
  0xbd398e24bde197a4U, 0x3e251714bd443dceU, 0xbe223e70be9073a8U, 0xbb4771ad3d13ce25U,
  0xbd607ec7be59da39U, 0x3d8ae4813dda67a8U, 0x3c2b7704bc884058U, 0x3d1615b23d783311U,
  0xbd0b4eb6bc85d428U, 0x3c907314be51e169U, 0xbd866e233ea2324dU, 0x3c883bb3be23a36cU,
  0x3e914707bd59f909U, 0x3cb1f208bed0ad1eU, 0xbde655453e51f2b7U, 0x3e1148e53e65a202U,
  0x3e0ffc83be1af549U, 0x3d5d1ff93dd80461U, 0x3e3b49babd62add0U, 0x3e69dfa53e0cd7acU,
  0xbcff2f1b3e819810U, 0x3e8c49a03dd19e2cU, 0xbddf7bf93e4596cbU, 0x3d2ebd333eba6f62U,
  0xbd9e8ab8be73fe37U, 0x3d3b2064bcb1b6c8U, 0xbc9e875c3c203920U, 0x3d2e12643d66e568U,
  0x3e9ab8093e4f4050U, 0x3dc051283ddf0af6U, 0xbe10a0fcbdae8f07U, 0xbe563e3e3e11c20eU,
  0x3d00fff73cbdc02bU, 0x3e39c2a53e21c9a8U, 0xbdcd72803e7b25e1U, 0xbe2ef569bd852716U,
  0xbe5d8117be862f18U, 0xbc78ad313df87a45U, 0xbdbb46483d1fa9afU, 0x3c029c503d6b9e90U,
  0xbd0b604bbe713f2dU, 0x3dd102143de84efdU, 0x3e1534903e1b44c1U, 0x3dca06bdbec19d03U,
  0x3e53e79e3db4253dU, 0x3e2b90df3cc27506U, 0xbe11ffeb3da03f8eU, 0x3e21540ebd43c7a2U,
  0x3c1c4c5c3b9f5869U, 0x3d82e07dbe756be0U, 0xbd8a5679bf376eb9U, 0x3d12920cbf102f78U,
  0x3ec8de2f3f1a3f70U, 0x3c8a794abf4de03dU, 0xbe2861443eafc1bdU, 0x3da2398bbed0bc52U,
  0xbd972585bec55067U, 0xbe0848cebf25111dU, 0xbe65b6a4bd26e88fU, 0x3d4426183d162ef5U,
  0x3b0208f43e1e185aU, 0xbd8bda0e3e856aecU, 0xbd882e8bbdf0e884U, 0xbbd9d9b83de1b8f3U,
  0xbd878bc43e9463e6U, 0x3e08b67c3b8a53adU, 0xbd3ee1fc3deccc19U, 0xbd0ba4fbbd9cb334U,
  0xbbbd6c69bdcb91c6U, 0xbd1b0d5f3da50dcdU, 0x3c8929e7be5a320bU, 0x3e076ca4bbd7bc42U,
  0xbddb057a3ce91759U, 0xbdd9e49cbe0bc6d8U, 0x3cc591fc3d037c18U, 0x3c7234de3d87a086U,
  0xbe1d5d5d3df3ca7cU, 0xbdd15d163d28b3e8U, 0x3d150ff63d853390U, 0xbd9c8ef4be1767faU,
  0x3e3d84943d736fa6U, 0x3cb0ea493a57d2e1U, 0x3e3cba8e3c33c053U, 0xbd5fe9943e635cfeU,
  0xbea4c900bd0089c0U, 0x3c8744aa3d0ebdfeU, 0xbdee5f2d3df5461eU, 0xbc8d23b03da0896bU,
  0xbd7383853e2dc9c1U, 0xbda4ce1d3dcfa408U, 0x3d262087bc02641eU, 0xbd19ec993e2f7bd1U,
  0xbe008ca1bd95673cU, 0x3e059a8cbe812dbdU, 0xbd9b15da3ddef0e6U, 0x3e47a663bd29d2c6U,
  0x3c3cf7c53e02bfacU, 0xbdd9a2623d4686afU, 0x3dc5380b3c62e7b7U, 0xbde45e6a3dea8cc6U,
  0x3d962a7f3e52ca73U, 0xbda7bd0ebdb1f511U, 0x3de0552cbd4513acU, 0x3de37e853e5b90faU,
  0xbd1facac3e2435b6U, 0xbe42e3eb3d1a567eU, 0xbdf0b135bdc6a844U, 0xbdafe7eb3e359ed3U,
  0xbd82dec8bcaec841U, 0xbd34de233da9c460U, 0xbe0cbaa8be8518feU, 0x3e0930e43e218964U,
  0xbec99d70bda6de08U, 0xbe5ea5a33e5552e4U, 0xbd8dae613c9ec129U, 0x3e7b3e7bbd918f92U,
  0xbe23bebb3e4cc820U, 0x3e25650a3e85915bU, 0xbded4730beca1fd7U, 0x3dd5bf833ceecd77U,
  0xbd704b3abeafe8acU, 0xbd1e78e43e3b2f94U, 0x3e1d9bb0bdc59495U, 0xbf1c05afbf8ce40bU,
  0xbce099db3e26fbfaU, 0xbdf5edc83ea0a62dU, 0x3d7380ddbe24d222U, 0x3f291803bf54de37U,
  0xbd2a3e333f784dfeU, 0xbec26c78bf784535U, 0x3eb96e6b3dcddbb7U, 0xbbbf2f32bcaf1160U,
  0xbdacb6cabc387b88U, 0x3e23317d3e48a740U, 0xbdc3c0adbd02d629U, 0xbe65f4043eac32ecU,
  0x3db91998bd175cc6U, 0x3e02fdda3b150ed9U, 0xbcbc6fe8bc709830U, 0x3d8b0b75bd8b5407U,
  0xbe3754a13e2b8c0dU, 0x3b5524c83dc47703U, 0xbdf4e435bd93d3d0U, 0xbcb416cebdd50854U,
  0xbd4489a2bd42b973U, 0xbdf0af43bd864585U, 0xbdbfba4bbe9d2fecU, 0x3dd80d273e368989U,
  0x3e792f96bca79ff3U, 0x3dd56ba1bdc5b8fcU, 0xbd8fdd2cbdc57689U, 0x3dc457db3e637d73U,
  0xbe3049273dedc14fU, 0xbde95f4dbd21bea5U, 0x3e0415943dfd2ab2U, 0xbe28b88d3e21318fU,
  0xbe387aa1be3986e4U, 0x3de7e9e03ddc56f0U, 0xbbd921e9be8763c8U, 0x3e1a01993d8e2a78U,
  0x3da1dfc63da505bbU, 0x3c32e53dbde4ffbbU, 0xbdb33021bda4df45U, 0xbc8ff9cebd4117f5U,
  0xbdd36f45bd076a10U, 0x3b3bb7163d30b1bfU, 0x3e1c955a3d21d5d5U, 0x3d57434abe344bdbU,
  0xbe7879283dc92065U, 0x3e6991c93ddb6ea4U, 0xbe4ba8423cabca79U, 0x3da356473e1602e8U,
  0xbe1001b8bdeef592U, 0x3e1fbfe3bd3361f8U, 0xbddda4fe3ae243daU, 0xbd314f7b3d80a336U,
  0xbdaf81f7bd4c7b24U, 0x3e401081bd10eddfU, 0x3bc78299bea43aa7U, 0x3e9d18843e3e5ca1U,
  0x3e21ac57be3079beU, 0x3d0414273e82f5a4U, 0xbe901c52be851839U, 0x3cb8f4da3d631230U,
  0xbd159de7be7f4e05U, 0x3da7eeae3e14dbe0U, 0xbe5ca125bed07054U, 0x3e240b313eadefc7U,
  0xbee4842ebda43fc9U, 0x3ebffc793e703f67U, 0xbe073fcd3e821cc9U, 0x3e942f65bd82933eU,
  0xbe858924be5e9ec4U, 0x3e0813dd3dba3f9fU, 0xbe43903fbe06444dU, 0x3d9c2cda3dfe5bd0U,
  0xbeb4a494bf6e3a61U, 0xbe4e76393f6d3ddeU, 0xbedb4f3c3f9f20ddU, 0xbcf6da3cbf90940cU,
  0x3eaea3403e1a29eaU, 0xbdc8cf01be795132U, 0xbe60d2ccbeb87715U, 0xbe3edcd53dfa323dU,
  0xbf03702b3ea277adU, 0x3e4076403e11d66eU, 0x3dc1db713d3ff5baU, 0x3dd842f53d3e8a6cU,
  0x3c8138873e206f8eU, 0x3e20a9123df953a3U, 0x3c351a003def016bU, 0xbd543e6d3aa3ffd1U,
  0x3d1259ac3d831fe5U, 0xbe3106443cd45c3fU, 0x3b41e2a3bdf2cddeU, 0x3d265d0a3df0b1d9U,
  0xbcbbf96f3d4f8c88U, 0x3dcc98c33e244f60U, 0x3d0daf03bdc14f29U, 0x3d2b2e5bbd7f8ddbU,
  0xbcf2e634bdeeb63fU, 0xbe53b5a73dac03b3U, 0xbe317ac03d8831e2U, 0x3c4c7bd23c1dbd05U,
  0x3df98e6e3acb6618U, 0xbd85820e3be0dfb8U, 0xbd7a3c6e3e1def95U, 0x3e3498a93bd8072bU,
  0xbdf999d93e0496eeU, 0xbe313056bd1355c2U, 0xbcc2d4903cbbc6e9U, 0x3d80b7093d137f00U,
  0xbd62ac86ba29d4e6U, 0x3c5bc15f3d95b5a0U, 0xbcc514553df30ed4U, 0xbd9c25c4bd14d732U,
  0x3d8aa0f13e2bfb07U, 0xbdbd056f3eaebc96U, 0xbd7004293d9807a3U, 0xbdad7aebbe2331c4U,
  0xbd291b543c6f9d38U, 0x3c7b5c76be283560U, 0x3d9db9adbcd835c3U, 0xbe3548e53d7a3c1cU,
  0xbe4f19113e01ff51U, 0x3df6864f3d192d52U, 0xbd93afdc3da69188U, 0x3d0852e4be5a2433U,
  0x3cca00a03df138a5U, 0x3e4a10433dd67175U, 0x3d92182c3d12794fU, 0x3ccd5fac3d3f28bcU,
  0xbe81542cbd16140aU, 0xbc99937e3e0582b7U, 0x3d8013e63db7000dU, 0x3da29c933df0f6b6U,
  0xbd4c85b8bd575ac5U, 0xbe252f713e180f43U, 0xbcd4812abda4efcbU, 0x3d1348633e6606e6U,
  0xbb178de93e43c0daU, 0xbdc17c09be030924U, 0xbd7f5d09bd4c64d9U, 0x3c64c46ebd81ae6eU,
  0xbdb8ab85bd3614ddU, 0x3e53606d3d9b03deU, 0xbe1c8ec63de1835bU, 0xbd760a693d6fb9b9U,
  0xbdc949133de18b89U, 0xbf43bb0cbdd447adU, 0x3dfa6211becb3616U, 0xbf328ef53e7753edU,
  0x3e757d2dbe0a7775U, 0x3f895f7ebe9a7d87U, 0x3da258293e8d3398U, 0x3e1bd3adbf3e2888U,
  0xbc0bea393e344d06U, 0xbeb857bebd58f05cU, 0x3ddb96d33e69149aU, 0xbdd90a59bddcb53eU,
  0xbe21f5b9bd834a9dU, 0xbe43c31e3d736b2dU, 0x3ee21798bbeef843U, 0x3e7ae095bd10233bU,
  0x3e01ad1abd3dd440U, 0xbd5902c83d6c62bbU, 0xbf01d02cbd79e99fU, 0xbeaa4082beb8d070U,
  0xbaf8e31f3d1e96c6U, 0x3e61aee7be4c5a08U, 0x3d8b1fc83ba892afU, 0x3d14fac7bd979179U,
  0x3ccc8be4bce6b598U, 0x3e3af2f43d97e171U, 0x3d1dac083de53c8cU, 0x3c2df6ccbdc8ccdfU,
  0x3ed12e513e1ab87cU, 0x3e1649f13ccfe70bU, 0xbeaaf1ec3c64197eU, 0x3d0f00783e5709e8U,
  0xbe836ef43dc2d632U, 0xbe9f006a3e686b25U, 0xbd4075d3bdc523e2U, 0x3cae489fbd3f00baU,
  0xbe0328d43e83f4a9U, 0xbde88954be308494U, 0xbe0f6e9dbe760498U, 0xbe8a0edfbd4a5b60U,
  0xbd00791c3e297837U, 0xbdc903ad3c691fa7U, 0xbea37e2d3d591e93U, 0xbe2cfb20bdf4db7bU,
  0x3e6cb4adbe984e3fU, 0xbeec76343d1ff080U, 0x3db69549be36b35bU, 0xbd77e337bdcd3da5U,
  0x3dffc76fbe155b63U, 0xbe00cca63e841fdbU, 0xbd93aae33c27df99U, 0x3eb6442c3dd165bfU,
  0xbe2ab29f3c55b64dU, 0x3dd1acc2bc45d19bU, 0x3d14a44c3d700733U, 0x3dca06693e3b4eb5U,
  0x3e30df2abe0c547fU, 0xbe9e4952be939f4dU, 0xbe8798023cc3aab6U, 0x3e4dcf443e238151U,
  0x3e2c43e33e00887cU, 0xbe462691be0a498fU, 0xbdd192ff3d2c605eU, 0xbe623ec93b87a93aU,
  0x3ddc2cc13e560b28U, 0xbe31d6cc3df2852eU, 0xbe0d72cfb92fddd3U, 0x3d90ab213e843f60U,
  0xbe151a753e0f16ffU, 0x3e753a873db4717cU, 0xbe101dff3d7daeebU, 0x3ec1d307bdc1a3dfU,
  0xbdc352263d6287a1U, 0xbb9759973e5ec6c7U, 0xbf347ede3f3559ceU, 0xbd530d493f6886ebU,
  0x3ed6f462be4a5f02U, 0x3db36d213f0d241cU, 0xbf464bffbf0ca65dU, 0xbd696ecd3f823ddaU,
  0xbe1d18983e801271U, 0x3e9928983eed0e16U, 0x3ec981de3d470cb3U, 0x3d1d4547be04906bU,
  0xbd1065f83d91872cU, 0xbddd775bbea203b5U, 0x3e03d6323e4e4212U, 0x3d3c0bb1be352fe4U,
  0x3dbce702be898f00U, 0xbe3c0ed03d337d4eU, 0xbaa214c2bdfcc2f3U, 0x3e0cca683cf98d74U,
  0x3d5ddf173e7e8f39U, 0xbd1f4affbe5e3fa3U, 0xbdf0e74a3dd84d1aU, 0xbe725fe2be257918U,
  0xbd56d102bd781f16U, 0x3e3a0fd6bd85744dU, 0x3d583dac3eada976U, 0x3d4aa60e3c309900U,
  0xbe2f10e0be1482e7U, 0xbe06a48bbe856247U, 0xbd31bf793e514651U, 0xbdc430953e5e95ccU,
  0xbc1dc52c3e8dcbdeU, 0x3dbcd8ca3cc88919U, 0xbcd84605be19234fU, 0xbd908da3bddd7c11U,
  0x3d4449fbbd067093U, 0x3eab152bbd985336U, 0x3d3db2c7bc400398U, 0x3e6260fc3d0e7e60U,
  0xbcf2ef5e3ca5b02aU, 0x3e96b76c3e4af111U, 0xbe86c5d3bcb36038U, 0x3c932bbabe862565U,
  0x3e284f873dea2c72U, 0x3e2e6361be7fedb3U, 0x3e98a689be10f59eU, 0x3dea8a76bbd43377U,
  0x3e80f1d6bdcad5eaU, 0x3e801c6abef35a9cU, 0xbe17f750be7995afU, 0xbcabfe52beb4f6aaU,
  0xbec014303ea4ae92U, 0x3e043a10be1c04b8U, 0x3e769ba73cb857e9U, 0xbe015538be7f3f68U,
  0xbd26b1853e3dfa04U, 0xbea71d82bbbdb41bU, 0x3ec04b243e046b84U, 0x3eb27c55be653ea3U,
  0xbd2907343dadffe2U, 0x3d1274b5bf0ca223U, 0xbe5b90a93eeadb7eU, 0xbe1b7705bea2e1caU,
  0xbc4791803e186a79U, 0x3e379387be3126ffU, 0xbd539be13d855a26U, 0xbd2cd879bd692753U,
  0x3d0687e1be1a4d95U, 0xbe6f50abbe3a5f56U, 0x3d6467883e92e45eU, 0xbe99578abdd6b9fcU,
  0x3cec9e743e552c3cU, 0xbcfdb9293c6c025eU, 0x3c9478a13db6b891U, 0xbd5e452c3e97cdf8U,
  0x3eb6a2d93f0334b1U, 0xbecd36713ea25dbeU, 0x3e45952cbe994995U, 0x3f0a6cd8bed14495U,
  0x3e5597643f0cbba0U, 0xbd45c2913d8ef734U, 0xbca466b43ea1ee94U, 0x3e4cc752bdd57b92U,
  0xbe2a0ddebe99e505U, 0xbe3efeb53c8a4e97U, 0x3e04c95cbd7c7c20U, 0x3ba9e7413d6c4ae8U,
  0x3e8ca88fbe1619ddU, 0x3e1dacb9bdad9c58U, 0xbe1dbced3d02a1e5U, 0x3e262a69be880249U,
  0xbd279b3c3e1c91caU, 0xbe34b533be90dbd7U, 0x3ca223d7be506a95U, 0xbca74b623dc3c979U,
  0xbdba48b73da7cc23U, 0x3deb5aebbd61a47bU, 0xbd5ecddfbdf100c3U, 0x3e58c57d3dbf4211U,
  0x3eb0c5563d73b600U, 0x3d297351be747e7eU, 0x3e25f4be3c11d809U, 0x3ba8c4c73d529445U,
  0xbedf2510be803388U, 0x39927792bdbaec47U, 0xbcac4857bd7b603aU, 0x3de463d73e3f4973U,
  0xbcaab05ebe3540c8U, 0xbbd31736be540eabU, 0xbe4b8030bdbc9433U, 0x3ccfd9003c9c082dU,
  0x3e316089be8365dbU, 0x3cda9714bd9468d8U, 0x3d9792403e147759U, 0xbd95b94a3ce65abcU,
  0xbe4174fc3deeb83eU, 0x3e08ef77bd829cbeU, 0xbe243877be526ff2U, 0xbe8e90603da111f1U,
  0x3c7bf285be58ad6eU, 0xbbf575f23db538b7U, 0xbddc908f3d38042cU, 0x3e27fdc43e371c02U,
  0xbe0b54f53e2cf5ddU, 0x3e9a48a0bec0700dU, 0xbe475a78bd21f499U, 0x3cdafc233e14e499U,
  0xbd7f68933eedfff9U, 0x3e13c02abc3f4b2aU, 0xbe73ebaa3eb08b13U, 0x3d05c42a3df059c7U,
  0xbea814c9be5eddf2U, 0xbb87a39f3cda0ca1U, 0xbd8a51693de31650U, 0x3e0c3810be278f68U,
  0xbe6d9f333e97044dU, 0xbc6288de3e847094U, 0x3dbb4c7a3cab4eafU, 0xbabd9566be2de80cU,
  0xbe916a853e33a6edU, 0x3e9e5c9abd8b8fdaU, 0xbe71020bbe471c8bU, 0x3e004b9abdfeb749U,
  0xbde014e83d35a0abU, 0x3eef24dabde3878dU, 0x3be76d56be703663U, 0x3de3d135bee67c31U,
  0x3f21e15a3f1cbe1cU, 0xbcc8f5a2bf1851c6U, 0x3f334336bd7b876bU, 0x3d046ea33ebfe020U,
  0xbf414cc23eb701cfU, 0x3d70d9cbbe431eeeU, 0xbd58b2d83d2a41ddU, 0xbdc889e2be902b83U,
  0x3eb4df7b3d1179d8U, 0x3e56774f3db13f60U, 0xbe808b603cf629b0U, 0x3d007c28be9a7145U,
  0x3e26b921be909ed6U, 0x3e8d5e7cbe0d470aU, 0x3cc6b5c0be1b3ca3U, 0xbe5862d83e89d318U,
  0x3e9793cbbd64e6bbU, 0xbde00df33ce1287fU, 0xbe110e53be195ffcU, 0x3e616e69be8ae0edU,
  0x3dfa31393e0dde6bU, 0xbd37c992bd786a23U, 0x3e77ef593dd0dafeU, 0xbccc827c3d8771b4U,
  0xbe0ca4cd3d5b78d7U, 0xbe27a572be4b3d70U, 0x3dcd93543eaef1edU, 0xbe54db92be156153U,
  0xbe5920a7bddb1a50U, 0xbda727503eb0080cU, 0x3e54f2293d639183U, 0xbdea54323ee189baU,
  0xbccdf90bbe298dc9U, 0x3f006f2ebbf052caU, 0x3e03809f3d52ef48U, 0xbe184118bdc73c5aU,
  0xbdc1751bbdfd9e9aU, 0xbac96544bece3a60U, 0xbd0c0491be0e51e8U, 0x3e405e103e876362U,
  0xbe0f3733bdfbc873U, 0x3da70b61be8cfa65U, 0xbe91379f3bf58686U, 0x3eab6decbdc15aa5U,
  0xbb90cc713cf9e18bU, 0x3e3e867abdb259e3U, 0x3dbdb114be1223a7U, 0x3d9768523db98d94U,
  0x3e0ce22fbdf0691cU, 0x3dc383ef3de77d1bU, 0xbc744c803defb185U, 0x3eb27a923df99172U,
  0xbe569cf03dcee015U, 0x3d9542d4bf0677c7U, 0x3e91de4abe2e5c8fU, 0x3eb414193db7ff8aU,
  0xbea17b00bdd10bdfU, 0x3ef12d78bde415c5U, 0xbe84a9e2beb85bc3U, 0x3e680c77be252e26U,
  0xbe62c6d8be3ce58eU, 0x3e6cd33b3e12e62eU, 0xbe0878e1be27f79eU, 0x3e1b4460bd00c76aU,
  0xbe6a7a96be4a54e3U, 0x3f0179be3e5825dcU, 0xbe40fdf83e58c81bU, 0x3e37fd35bedc1f01U,
  0xbe9393083df91915U, 0xbe47a8e1bdf6fecdU, 0xbeb69c5d3d4e6510U, 0x3e5deb21bd90e88eU,
  0xbd5970bc3e28e637U, 0x3f6af78fbe81f756U, 0x3d5ccff6bba116d8U, 0xbcd7e3eabc92a2c8U,
  0x3e100ba53ef18713U, 0xbf0cb9e83bf44342U, 0x3e6603783e3eb4a2U, 0x3f2139f43e2a2f08U,
  0x3e1ce35abe3d1cafU, 0x3e080ea23db888a2U, 0xbe7272cebd3380bbU, 0xbd6212d2bd9a4bacU,
  0x3de7fc0fbd74488dU, 0x3dad706bbe1ec826U, 0xbda02ca13ca89a76U, 0xbd4aaeacbe351e57U,
  0xbd06d9a0bdd2bd44U, 0x3c9f792f3df80fe9U, 0x3da7deb4bd2664dcU, 0x3df523783e0f9e91U,
  0x3e1c3860bda2efa5U, 0x3d9fcac23e68b346U, 0x3d5789d7bd846cf6U, 0xbce7c353bb940a78U,
  0xbd4448393e0b32afU, 0xbe298d9e3dbdf5d1U, 0xbd800a233d90271aU, 0x3e1b5046bd5f7ba9U,
  0xbc94f70bbdc0b38eU, 0xbe040dd13cb6f8c7U, 0x3e20a3b33d4256a4U, 0xbe363ea7be1b5813U,
  0xbde7e6e1bba91372U, 0xbe38615fbe1c6157U, 0xbc53f04fbd811b72U, 0x3e4449203e0c013cU,
  0x3de73a61bd03c7ebU, 0xbe5f9bf23d0baaafU, 0x3e242ebcbc047906U, 0x3c32706bbda001f0U,
  0xbd925448bca9f2e3U, 0xbe6822b8bdae7a82U, 0x3dce25a0be1c7e25U, 0x3cc00cf93d4c12d0U,
  0x3e264943bdfa56e4U, 0x3e30b5053cc8bee9U, 0xbd8a23c9bdf12ca3U, 0xbd9341f8be2180edU,
  0x3e855f8ebe98871cU, 0xbe274ab73d880ebbU, 0xbde2a96dbe0e1e6bU, 0xbd0821ebbd173e22U,
  0x3d798817be7b6d82U, 0x3e96c5513dfbddadU, 0x3bacd2abbe8b20f8U, 0xbddb1c5dbe419761U,
  0x3e9d178abe1454c9U, 0xbda68a623d077ae5U, 0x3d9bf2e5be3100e5U, 0xbc2ab709bce828a7U,
  0x3e4d28d9be82e360U, 0x3d3164263eaf1a5cU, 0x3cff0626be740b8eU, 0xbd291b1c3da58723U,
  0x3dbce969bd0a6b42U, 0xbe31f4c23ddcf2f1U, 0x3e18bb94bdff037bU, 0xbec6ce95bdaeb2deU,
  0x3d8b717cbe300d42U, 0xbe3b8cd73e26d12fU, 0xbcb69836bd9e5894U, 0xbe866cc13eb3b2f8U,
  0xbdc09173be5d6d11U, 0x3e22371c3e70f498U, 0xbe95087cbf968fccU, 0x3d95ff05c004b4b5U,
  0xbf06e9893e6d79deU, 0x3e5d7998be053820U, 0x3f0c52bebf5b2708U, 0x3e4db8c83fb662a9U,
  0x3cc344173b4b7a9fU, 0x3d1bee40bf578e07U, 0x3e0d9c38bd710e36U, 0x3e0b43fabb0cb41cU,
  0x3dce8f6ebc9c99d4U, 0xbceca063bd581fa6U, 0x3d93d1da3d5f4dadU, 0xbc598ac9bc70dc07U,
  0x3d4d091f3c98e807U, 0x3e0321263c1eeba1U, 0xbdd780cebd276ae8U, 0xbcb0cdbebd87f5dbU,
  0x3b08a3093e0a3a45U, 0xbc12800a3cb66e89U, 0xbc05aa18bdcf1fe2U, 0xbca59045bc5507d7U,
  0x3d9965c2bbf09266U, 0xbd3acc9d3de9ff6dU, 0xbca447dbbce94880U, 0xbc183ce83c8b082fU,
  0x3dd09445bd51ec92U, 0x3d9e0529bdb91cfdU, 0x3cb74c433dacbd2eU, 0x3e0978623d6dbf84U,
  0x3e34bf65bde3baffU, 0xbda15aa9bd4b6705U, 0xbcaf6587bcc7dbc6U, 0x3dc0bcb6bd93afa7U,
  0xbd9b13ddbde01ddbU, 0x3d228f71bd29a9b0U, 0x3e149a3fbd111de8U, 0x3cd30d053d56b736U,
  0x3d536ac1bd147b7dU, 0xbd8d69ddbcada5b1U, 0xbd78da49bd2c7435U, 0xbc726c95bd2025ccU,
  0x3c23a18ebe4fdd06U, 0xbd1475763e0425cdU, 0x3c0b472f3d1f8dd7U, 0xbe62ff0f3d9d7e5cU,
  0xbd1c4b933cef1166U, 0xbd01bf8fbc4232caU, 0xbccade393cff1ea5U, 0xbdf58ec2bddc7cf1U,
  0x3c420b863c89edb6U, 0xbe7584cd3cfe931fU, 0xbceee8493d05e3daU, 0xbd8ed904bcec1910U,
  0x3d5620283d2b6521U, 0xbe0afd7fbbc8edabU, 0xbd82e7663d5b6a90U, 0xbde912d3bb43e459U,
  0x3d4802a83d18ec7aU, 0xbd1cff86bb598531U, 0x3d840d88bcb1407dU, 0xbddb0315be212d0aU,
  0xbcc574013b96a7aeU, 0xbe60671dbcc2bac4U, 0xbc72c64b3ced5358U, 0xbd87e43bbd925066U,
  0x3dcc49983d436995U, 0xbe1457e93d442e44U, 0x3da85293bc3b235cU, 0xbe02655fbc0c8c3dU,
  0x3dabcffabd90df9fU, 0xbcd2dc643c0ed958U, 0xbd69c3133c0116b0U, 0x3fc05d35c022f8d9U,
  0x3dfd6aa63f8bdafeU, 0xbe966da53c962abcU, 0x3e37e9033b9464eaU, 0x3fb162013f80901fU,
  0x3e14eddabff6e589U, 0x3fc6b25bbf590898U, 0xbe2eb9013e1d78efU, 0x3d6620c8be68de55U,
  0xbd211cd1bd18f3f8U, 0xbcd9d6553daf3074U, 0x36b1c40e3d0938c1U, 0x3d5b58dd3d96355bU,
  0xbd80dd323dd78cd9U, 0x3da285b93c177f10U, 0x3c375c5abdf8d576U, 0xbb9e0f373e01815fU,
  0x3d83214abd3566f3U, 0xbaeca94dbd7dafd3U, 0x3dd9bcf2bd9d9b91U, 0x3d00442b3dd18584U,
  0x3cac00933c83261cU, 0x3d4762cf3d80f508U, 0xbde1973dbdae7170U, 0x3cf1a09a3c686eaaU,
  0x3d7a2a4bbd7d1153U, 0x3d167ea5bc0dfb43U, 0xbcc8a6583cae4b96U, 0xbd2dae30bd09ad68U,
  0x3d6231a53d133616U, 0x3ce179803baa7c02U, 0x3d23db59bca7b021U, 0xb99b951abc5503c4U,
  0x3da0c8903ded77e6U, 0xbda8896dbd6d26c4U, 0x3b1b7f01bdbcee57U, 0x3ce1a04b3d7cdc2aU,
  0x3d9497773d7e6301U, 0x3dcb27363bf8400aU, 0x3d21bae63caa1cebU, 0x3d3bd0b13bcafad9U,
  0x3cdea9dc3d54f90bU, 0x3cfdec5d3d89572fU, 0x3d0de38a3de63651U, 0xbcf9b852bd02a2ebU,
  0xbc7ffdd63e082dc3U, 0x3d8c7e7abd4d4317U, 0x3b882f8bbd0f0839U, 0x3d1e5df93c5bb0f0U,
  0x3d47026e3d8f85dfU, 0x3c3c4a3abda8f0e3U, 0x3d6c84873dc5a116U, 0x3cfa1f2bbdb5ef88U,
  0xba953258bd310041U, 0xbcab525bbd154958U, 0x3d5c9abb3d85ab97U, 0x3dc32ba2bd135264U,
  0x3cce27e83dc3ab03U, 0xbca532e4bd944512U, 0x3cc89fa33e09d7f2U, 0xbd19bbe3bcf8ee46U,
  0x3c9512613e117d73U, 0x3d138c12be3503feU, 0x3b9c46393e36e4d0U, 0xbcd3f3ffbe532138U,
  0x3bebca083dcbae20U, 0x3c6cf864be38383dU, 0x3dd722063e0c91b5U, 0x3d95d68bbd1dd5c1U,
  0xbdd58d7c3e1de39cU, 0xbc367e21be460d7cU, 0x3ceb68863de12e11U, 0x3da8c04cbe50675bU,
  0xc02ff8c3bfc990efU, 0xbd8f1f7bbf8b612bU, 0xbf1f3220be1b1326U, 0xbe1c50cb3ed0b2cbU,
  0x3f370e71bf5ea272U, 0xbe90b5dc3fe15582U, 0xbfb15e3dbf3d2ed5U, 0x3e5863bebe2e5025U,
  0x3e74f3c0bddf0bd1U, 0xbd6af4613c4f755bU, 0x3c11cf4b3d55f791U, 0xba9c5d95bca9cf54U,
  0xbcef8a5d3c8a7bd1U, 0x3d488817bd27df34U, 0x3d0f43043e05c762U, 0x3cdd7b803cda2236U,
  0xbcaef2aabd193770U, 0x3c6144003d1ea7b6U, 0x3d21466f3d2a3e8eU, 0x3d29ffa4bd040086U,
  0xbda9cd6f3c69dbc8U, 0x3d0acac9bdae068fU, 0x3ccba5583b00ae08U, 0xbcae9cbc3c3e97daU,
  0x3d9bd8d93d8e469cU, 0x3d2e14ddbdcc0410U, 0x3bb421e6bc05f7f3U, 0x3a7df9efbd94db75U,
  0xbd1bc4c03d6d45ecU, 0xbc70e996bd038896U, 0x3c7f02723c0c2fb2U, 0xbcefbe24bd43a583U,
  0xbd534e99bd87a6a1U, 0x3d60ffa4bc7d58c2U, 0x3d0b5e1bbcb1c8a0U, 0x3bcb7b02bcea5171U,
  0x3ae8c0f7bd8f24a7U, 0xbd25225fbc323196U, 0x3dce71163bdd39f4U, 0xbd668b10bc310283U,
  0x3bf3b1a93cbc5536U, 0xbcd344cebd53642bU, 0x3df6780abc9200e8U, 0xbd03e211bbe3059fU,
  0x3c9861b93c9fac30U, 0xbdc72c5cbc5b75eeU, 0x3d7021debc4bf1afU, 0xbcf5dda5bdae04d2U,
  0x3df607fd3c6bde94U, 0xbdf3e058bd25d9b5U, 0x3db504503da0eb1bU, 0xbe08285cbd35dc04U,
  0x3db4e7cc3d6e55bfU, 0xbaa8fda0bd4dce54U, 0x3db4ea583c7bb0a2U, 0x3ca58fd9bd28e7f6U,
  0x3dbd7814bc83fed8U, 0xbe402daeba34b133U, 0x3de5ae11bbd3e86aU, 0xbd3fb9a3bd989004U,
  0x3d534b503c2e9a29U, 0xbd83f55ebe1e720aU, 0x3e067c543d8f619bU, 0xbdfbf884bdd914cbU,
  0x3df5833bbcbff501U, 0xbdc236c4bcd7d5f2U, 0x3e33db893d16214eU, 0xbe19d74cbd3404f8U,
  0x3e57139e3c27493bU, 0xbe4d5987bd98dd52U, 0x3e739aa03c53eb6eU, 0xbdf75655be30293aU,
  0x3e9626a93cbf7a91U, 0x3f35e3ed3e823bf1U, 0xbd2bd1903fceb142U, 0x3e9678843ea4b832U,
  0xbd39195fbd5b72eeU, 0xbe2b692f3f7c138bU, 0xbd5ea5b5bfa2e8e1U, 0x3ec48cd13dede2c2U,
  0xbe06b5da3f1d3bd1U, 0x3d21d252bde342f6U, 0x3d2874f8bd2db116U, 0x3c2bf72c3d890577U,
  0x3e82aa3c3db177d7U, 0xbe285c9a3e1fee1fU, 0x3c8fc72c3d93f522U, 0x3cba3224be18da72U,
  0x3d8a6de3bd647306U, 0xbe2d40603e9fc775U, 0xbe47461bbc455f52U, 0xbe36d6ab3daa24c1U,
  0x3e05cf863e324573U, 0x3d8d26e0bdb86084U, 0x3d6209a7be0cd244U, 0x3df173ff3ce29681U,
  0x3e035387bdbdd73aU, 0x3e25afa6bdf22837U, 0xbc267378bdbbe9abU, 0xbe36816bbe00f9a1U,
  0x3e15fbccbd05ba04U, 0x3d986d503c488de6U, 0xbd7346ccbd41e2a6U, 0x3d92b91a3db2c1efU,
  0x3e12baf63abe0022U, 0xbdb15ca93dd747bfU, 0xbdd2aaf83e0dd19aU, 0xbe12bc383e0c8591U,
  0xb94f2ee8bc70b641U, 0xbd03dbfd3e2faef7U, 0xbdfcb049bd20a372U, 0x3d4a12e73e25224fU,
  0x3e1524a6bdd1a4feU, 0x3d93c9df3ddf8de1U, 0x3d7facec3db6ded4U, 0xbea195bd3ceb82e8U,
  0xbaab4ec6be05d0dbU, 0xbe8ae30fbc8994a4U, 0x3e27847bbd58c55fU, 0xbdb9a6e13e6ecf53U,
  0xbe34cbecbd27c939U, 0xbd8eaa1d3d90dd15U, 0xbda5ce493d96867eU, 0xbd671c21bddba46eU,
  0x3ce9abdf3e6bbdbfU, 0x3d404737be9cdec4U, 0x3e874d683c0b8fd0U, 0xbe9a88eabdce6a92U,
  0x3c9675773ce87759U, 0xbe3ba1cfbe879fe2U, 0xbd86b2f5bcf31eebU, 0xbe3847eebd87ab33U,
  0x3e0d62673d3c4d40U, 0xbe9fdd98bdce4743U, 0x3dae7c6d3dcc1d56U, 0xbdf92bf1beef6922U,
  0x3d2ea0813bf95b58U, 0x3d32b4713b192094U, 0x3d15c3f53e607a94U, 0xbda9d0c1bbd77d76U,
  0x3e0e17223e427fb1U, 0xbde06309bd9230c4U, 0x3ca6e5b93dc4b6aeU, 0xbe7f1fe1be3728bcU,
  0x3dbde2e3bcdd9f1dU, 0xbe4bcf8fbd32ea3dU, 0xbfe29ddf3fe8daddU, 0x3e73319b3e346558U,
  0x3e8b13533e263c49U, 0x3e6017d4be213e46U, 0xbf79ea10bf702a7cU, 0x3ed9ae973f917785U,
  0xbf1ecf313f7709f2U, 0x3ea98519beca8029U, 0xbe0aad643c5675a4U, 0xbd08510cbd846a40U,
  0x3e91a1c53d9736efU, 0xbcd7abb33e85b1c4U, 0xbd4c0a9dbe25cbdaU, 0x3d1460a5bdbbf9c5U,
  0xbdeef8c03d4a7c97U, 0xbdd911433dd55b37U, 0x3d23d5e9bc81efbcU, 0x3e2218573d18e3d4U,
  0x3e3191c2bc7f9abaU, 0x3dd03e323d279ec4U, 0xbe1324c53db79945U, 0x3d9e1e92bdc7bc47U,
  0x3d2451073de30d04U, 0xbc268b05bcc7b91aU, 0x3d82da9dbd0f7fb4U, 0xbc4e8229be107e7aU,
  0xbc029ec33daf1905U, 0xbe0e107fbd95e4a4U, 0x3bca30afbb93d35cU, 0x3df794fcbe0aed55U,
  0xbd6d52dc3da6c6aeU, 0x3deb69583e17c386U, 0x3e5c5b683e38370cU, 0xbdb97b9abd2908c6U,
  0x3cd5691a3e6daecdU, 0x3c1cc064bd74168bU, 0xbc4540263d038ff0U, 0xbd86cb1bbd5ab3aeU,
  0xbd4793183e535a7fU, 0x3ce54cf13e15b636U, 0x3e6d4f223d311befU, 0x3dfd8f56bd0ba2a3U,
  0xbd14c1143e032e6eU, 0x3da3c05dbd9a82d0U, 0x3dc26154bd61162fU, 0xbe3a860b3d820e9aU,
  0x3b73faf63de5c315U, 0x3bc7c168bdd3f74fU, 0xbd4789b83d8da58cU, 0xbde271e6bd9c6504U,
  0x3d6dc0d33e0e9ab9U, 0xbc8d9f8fbe4caa03U, 0xbdcd8f1d3e6e7afbU, 0xbd90b7c5bd74c668U,
  0xbd32c83e3e02b600U, 0xbe2aab6fbd046dccU, 0xbc8ebc343dc52358U, 0xbd1c5748bdbf1c46U,
  0x3d2a30163dd68748U, 0xbe5e3a36bcd7e702U, 0xbd61a7993e126f8aU, 0xbdd19000be0042d9U,
  0x3d4cf8273e89026fU, 0xbd36f073bdacc571U, 0xbd81d3a43dc64abbU, 0xbdb70733be5b8edaU,
  0x3dcbf0463e53029cU, 0xbe00ead6be5a1128U, 0x3dc416523e814b5cU, 0xbe415100bdb21970U,
  0x3a96dec33e55c649U, 0xbdd2dea1be1c3f4cU, 0x3e621c013ea191a1U, 0x3e819f1bbf0dec3dU,
  0xbe3f1683bf1f3e99U, 0xbe8df2edbd8f8114U, 0xbd611747bcff2d41U, 0x3ee140d03e8086a3U,
  0xbe8afbfabee09edcU, 0xbc9ad0ed3d2892baU, 0xbc91a5b53d04a214U, 0x3dc80a01bd930467U,
  0x3d96b3833ed93f32U, 0x3d979abf3eb971a5U, 0x3d1684d73e8eefb2U, 0xbc79a6c23d88a7adU,
  0xbeb2e6533e231bd4U, 0xbcca6ff0bec11017U, 0x3ef4eaeebe824f5dU, 0xbdca7c963e5a0a43U,
  0x3e9b6a39be79272aU, 0xbe250baa3d88a7e7U, 0xbeb294bcbe1c168dU, 0xbdfb4e93bc7527a1U,
  0x3d0349d9bdf10fbdU, 0xbc2e26d13e3c27a1U, 0x3eb8fc863d05b2f2U, 0xbe3a780f3cd9519cU,
  0x3d863ca33dc2d370U, 0x3e9d14003e245637U, 0x3e8204003e4dfefbU, 0x3e146e55be0d0e29U,
  0x3e44ebed3e95be4aU, 0xbe13e32cbeb80cbbU, 0xbeb61161bd5fb634U, 0x3d86c2653e9c5465U,
  0xbe49c6f63e8d27d0U, 0x3e8464a3bdf32948U, 0x3f0a47dabb32daebU, 0xbd16875f3e8faa8aU,
  0x3e7d6e753e382e86U, 0xbc5d80603f00a35cU, 0xbc10733b3e959362U, 0xbe7e1d943e1864beU,
  0xbedf7ed9bd6539a4U, 0x3c29e6153d002d0aU, 0x3e95bce83e40c50dU, 0xbe55913abe8649f9U,
  0x3e9e889e3d4be6e2U, 0xbce1adea3e3c0cdfU, 0x3f09b2293e30d2f2U, 0x3e09332ebe055ac4U,
  0x3d7e2209bdeefb55U, 0x3e4a9edcbe9a7a29U, 0x3c317d30be89e53dU, 0x3eaf4629beb4cd38U,
  0xbd0e7db5be2d5256U, 0xbd53ae5ebf14636bU, 0x3e9bcfe6bebeaf0bU, 0xbdb03ddebe9c04e5U,
  0x3e50e2f1bf01bf75U, 0xbdff65dabf253929U, 0xbd63fe33be85be5fU, 0x3d87304bbead21caU,
  0x3f2c521abc2584fcU, 0x3e207b38becfc659U, 0x3da3a171be9b7593U, 0x3cf4fc99bebd0abfU,
  0x3ccedc5f3e36dfc7U, 0x3e4d5692bcac7092U, 0x3e8f38e2bd11d3ceU, 0xbe45e816be478f9bU,
  0x3dd060163e67daf1U, 0x3e1df4c93cca266cU, 0x3cc0c29bbc10342cU, 0x3e4fb432be2c8115U,
  0x3f37b81f3f6c1d1eU, 0x3d771d81bf846a02U, 0x3f006571be5492b5U, 0x3db7dd5f3eabfdc2U,
  0xbf39a0183eb24fd2U, 0x3caffbd6beafed25U, 0x3e85ea8b3ef41b8bU, 0x3b943b50bf381dd0U,
  0x3ee584c63dd1d008U, 0x3ea73073be61e67aU, 0xbd99b4c43cfd927aU, 0x3e166dcdbe0cbb78U,
  0xbd47529dbf0ad0d2U, 0x3e8f4468bd4775f2U, 0xbccee7903e407080U, 0xbdd2f3efbd6ab886U,
  0x3dc7b962bc3c20b5U, 0x3e83ab32be5206f5U, 0xbd0b74753b08f82bU, 0x3d2c7fa93da480c2U,
  0x3e8c0d6cbe5eed35U, 0xbe216e5ebd96b7ecU, 0x3e4c3c90bd267f5bU, 0x3dd4e0ef3e147324U,
  0x3db415f4be05a4a3U, 0xbd5988d2be371799U, 0xbd5aef50bd8bfad6U, 0xbdb457bbbd8b6caeU,
  0x3d4090cd3d9cec79U, 0x3e59b20e3df0cf9cU, 0x3d6f1240bd23317aU, 0xbe13cc893c3dbc16U,
  0x3e033bdfbdd8c6f6U, 0x3e0d91d93cf49447U, 0x3dec1d473e774840U, 0x3e4f5ece3dd403ceU,
  0xbe21bd8f3d5ce593U, 0x3e98be1ebcce471fU, 0xbe8183f6be0f7a9bU, 0x3d3079393e1e17c3U,
  0xbe215510bd8a329aU, 0xbd28352c3d621d63U, 0x3e419a5bbd0ef4dbU, 0x3df53db2bea4db3eU,
  0xbdc4d679bcb26f7aU, 0x3e7083fc3e17ac37U, 0xbd11e17abea36a7bU, 0x3e260135bd815e1fU,
  0xbddcb4063d64f4e4U, 0x3e0a7c313dfbbd86U, 0x3ce20427bdc3fa20U, 0x3f04d4bdbe8c0965U,
  0xbe5c5239bc4c2d31U, 0x3e4d5f15bdf2ab23U, 0xbeb12b8cbabea08bU, 0x3eb1b6a4be33d06fU,
  0xbdf173543e243c3cU, 0x3e6027f4be6825bdU, 0x3c582577bd80df20U, 0x3d499e1abaceccaaU,
  0xbde26fde3d301680U, 0x3d843ae8bea8ecfdU, 0xbb61d0e7bda247fcU, 0x3e74ee94bd0f90a6U,
  0xbead5ff8be8f482bU, 0x3eb93f4c3db80a7cU, 0xbcc8a8003d211e90U, 0x3e0c5724be6105fcU,
  0xbe3d8c26be2ece05U, 0x3e92ce823e3ae3d7U, 0xbc6c70cc3e0b8854U, 0x3e68519d3e205ea6U,
  0x3d171dc1bccfea05U, 0xbe0b02b4be2d7645U, 0x3bad892b3f174dcaU, 0x3f165660bf157965U,
  0xbd3a16763f140c47U, 0xbf093bbd3f842973U, 0x3d07b225bf9d78d0U, 0x3e8fedbf3e82318aU,
  0xbeb3e2b43dd62cedU, 0xbe29cd663e4c458eU, 0xbd2ab1323e338ec5U, 0x3caeb9a4bd156c52U,
  0x3d85def23cf565f0U, 0xbd26725bbd635febU, 0x3b8dc91b3e22b4faU, 0xbd6429c73ddd9cabU,
  0xbd182bfb3e05644eU, 0xbe80bbb73c1ba4a6U, 0x3d8d904cbe5feb68U, 0x3e1a81ebbea87a11U,
  0x3dd383b4bdc49a0bU, 0x3bfc39263db742f9U, 0x3d6462cebda7b60fU, 0x3dd63769bd8ab6afU,
  0x3e531b463e415cbeU, 0xbe55b510be20ad40U, 0x3d4529aebddaaa93U, 0xbd084e0f3e4d3b38U,
  0x3cee0fc0be9874e8U, 0x3de1e393bdcd25d8U, 0x3d1fbc9e3dd33d7dU, 0x3c06f0b33d49f88cU,
  0xbe3f20563e7e6344U, 0x3d8f60f33d453728U, 0x3ba2c94e3d97bda9U, 0x3e3fa405bb29539dU,
  0x3d989ec13d794761U, 0xbd02e6a5bc22f1f1U, 0x3e966cb93dbb5831U, 0xbe0efc463e0e1da3U,
  0x3cc2d7403d89a414U, 0x3b7e43bebe036f42U, 0x3e487d013deb173bU, 0x3e1cdaec3e1726f7U,
  0x3dcb52153dc62384U, 0xbd5a6fe7bd369964U, 0x3e0afe7bbd5e9730U, 0xbe210f543e6c8ceaU,
  0xbe1e36683e34110fU, 0xbe53729cbe200390U, 0x3e786d153e2a1cbaU, 0xbe8925083d320afcU,
  0x3cb7d907bdacd7abU, 0xbe82774abea1eb34U, 0xbdaab07c3e17cb6bU, 0xbc37e3bcbdd270c8U,
  0xbd439fbdbc67d0d0U, 0xbdb66ccf3e0dd97bU, 0x3d948507bdba0a92U, 0xbdb2af7dbdaff4aeU,
  0x3e2939313dc957fdU, 0xbe660669bc976c3cU, 0x3de94307bd00a580U, 0xbeb49eccbd870d05U,
  0xbbaa998b3d061b42U, 0xbe066a7b3b1c8b9eU, 0x3ed447713ca47257U, 0xbe7b644ebdc9df5cU,
  0x3e19d151bd006889U, 0xbe67ef93be01761dU, 0x3ecfb8273cda9573U, 0xbeb7c04cbd7db5cfU,
  0x3ead37063ccb20c7U, 0xbf1d2a743ce41ec8U, 0x3c226d053f67cb7eU, 0xbe9848023f4732c0U,
  0x3f1a865ebe258716U, 0xbe084c513e545629U, 0xbf7f49fcbf1fa96eU, 0xbe4a3b483f30a27aU,
  0xbe91e2bd3f33f8ffU, 0x3de1711c3e874edbU, 0x3d9cfe733d66dd0eU, 0xbe30726b3e914a40U,
  0x3cda81523e26f5c6U, 0x3e683f533bddd098U, 0x3c8ba1ad3d5edd08U, 0xbd2d3f3b3cfb4af0U,
  0xbe0b8c92be3747baU, 0xbe438ff33c8a54d9U, 0x3e779c26be5f3625U, 0x3e6c2638bdb283bfU,
  0x3e5d14773d9801d5U, 0x3e02fb94bd3967dfU, 0xbdede22c3d50f528U, 0xbd7da378beb901a5U,
  0x3c9d0ec3bdb8791fU, 0x3e00bbb1bdbc1fc0U, 0x3d469d3a3d8f7458U, 0x3b5cde52bea6786eU,
  0x3d80d1163e3d36dfU, 0xbdc5bc3bbd46540bU, 0x3d0b2e973cfe418eU, 0x3dc387abbd7cf129U,
  0xbd6b38b03e812deaU, 0x3daf057a3cdff6edU, 0xbb9940c9be0c5843U, 0x3de51e68bde4ce51U,
  0x3e0c50d33e0a5425U, 0x3e7463ad3e24fae4U, 0xbde999693d4ee1f9U, 0x3e587ec8be0ca837U,
  0xbddd0037bc77ad07U, 0xbc9faf143ba85f69U, 0x3a8b84a83e56834aU, 0x3e32a4b6be12a08eU,
  0x3d8cd1c83d80f673U, 0x3e81176fbe04021eU, 0x3e5c92ddbd806cf2U, 0x3d8cfab5bdedf3dcU,
  0x3e40038f3b70f5a5U, 0x3d9e8fb1be8832f0U, 0x3e5104383c4a1be6U, 0xbe8326c2be0b7ce6U,
  0xbc7e39e33ea0d3d6U, 0x3d6ad857bcb332caU, 0xbd7b7dfd3e844113U, 0xbd1f4e1ebe8e44c6U,
  0xbe5a382a3d92a71eU, 0x3e5055d73bf3c49bU, 0x3c78f1723e859503U, 0x3e82d140bdc5769eU,
  0x3d8064193c175e0bU, 0xbe5a442cbea79826U, 0x3d0beaa23dc665d9U, 0x3e92011abc8bebdaU,
  0xbebb9c2cbe0e7637U, 0x3da911b1bddd288bU, 0xbe21d1933da24121U, 0x3e47104bbedaee63U,
  0xbe29b6893e81085cU, 0xbce86e12be240581U, 0xbe0007183d105f06U, 0x3e15480a3cdd0d79U,
  0x3e2a62493dc4ed94U, 0x3d9ef6afbe90b77bU, 0x3dc2d4153dceff5dU, 0x3f63f01cbf0929a6U,
  0x3d5600763f330bb4U, 0xbf161b48bf2fe3c4U, 0x3d6a80e63ef6209cU, 0x3f9213febdefa077U,
  0xbd4493663f0ea4f2U, 0x3e29fed2bf02332dU, 0x3e2d8ef83f1e637aU, 0x3d456c433cb2719aU,
  0xbe86900dbd251b61U, 0x3de6d13e3dc3cf8fU, 0x3d2c6cb6bd9665f2U, 0x3e00eb64be1a33caU,
  0xba998cdcbd886dd9U, 0x3d18c385be0cf48aU, 0x3e597cd73cf359ebU, 0x3ec0e5373dbc11a3U,
  0x3dc178e03e8cbacbU, 0xbe965d013d944a88U, 0xbe225b03bdac0b9fU, 0x3e935e2e3ebb81e1U,
  0xbe86428a3dd935bbU, 0x3e092b2dbe94f18fU, 0x3dd925febdb8f8b5U, 0x3dedb8a9bdbde163U,
  0x3e16e731be3f4af1U, 0xbc10a2fdbd049396U, 0x3cc2a2a53b419a7aU, 0xbdaab7e5bdf5e24aU,
  0x3dcedd00bdb9873fU, 0x3dc2662cbe11f6e1U, 0xbd0dd022be279dffU, 0xbe2dc9073d1559c3U,
  0x3deee05f3e6858aaU, 0x3e2f8cd4bea2986dU, 0x3c8fb889bc9ea613U, 0x3dd98aef3cf03b30U,
  0x3e0d31613d85aea4U, 0x3e530b6e3e3543c5U, 0xbd1e41c43d08d2e2U, 0x3e08d6edbe216f9cU,
  0x3e0e3104baeed422U, 0x3dabaa213d112f75U, 0x3c9daf32bceb7fb8U, 0x3e5fc8333da92982U,
  0x3df812673e584d91U, 0x3cff3304be8fcae5U, 0xbe5bc731be5a40c8U, 0xbc8b12c8bdd49836U,
  0xbe9be033bd588849U, 0xbda7ed63be716b74U, 0xbd9f98603ca3f53cU, 0x3e407e3dbedb673cU,
  0x3d8c5b6cbdd08667U, 0x3e8d3df3bdde9797U, 0x3e1bdd153dc3b9f8U, 0x3e6bf334bbd4269cU,
  0xbeb229c7bdc7333cU, 0x3e83eb67be9db6f5U, 0xbeca936d3db7b48bU, 0x3e001202beb9e6afU,
  0xbe9dfe05bd92242aU, 0x3ed51b4a3ec69373U, 0x3bc5fea3be12f0aeU, 0x3e11e142be54ffecU,
  0xbc52478e3e4bf453U, 0x3ea29aa8be54bd0aU, 0xbefa437dbe1a9284U, 0x3e485fa83e375defU,
  0xbc42d4c0be033e60U, 0x3e0f23aabecc0248U, 0x39fb50a9bc8de803U, 0x3e09379fbe994d9cU,
  0x3f907048bf3f4b1fU, 0xbdc4d8013d886d4eU, 0xbf2f3f38beebd465U, 0xbddb44043e933983U,
  0x3f9679883f17a427U, 0xbe5ac8c4bf3a21deU, 0x3f2b1834bf167245U, 0xbd8378433f3741daU,
  0x3e5abe73be9a9d1bU, 0x3e399d2b3e92ca31U, 0xbd02f068bc5e41ffU, 0xbe20eae73e66148fU,
  0x3e90f4b6bebd6c4aU, 0xbd98d1a83d2b93b0U, 0xbdd902dc3d530b60U, 0xbd29ac9e3e32c6dfU,
  0x3d394e593ec3ede6U, 0x3e0e099dbd3f9ee4U, 0x3e08ab453dccdfb0U, 0xbe0fd742bdb585ceU,
  0x3e128435be5edee4U, 0xbe123da33ea5dd9dU, 0x3d3632afbe06f965U, 0xbe3a55d6bddda188U,
  0x3df3bdefbe680342U, 0xbea1d3f03e2681ecU, 0x3e884ce6bed1b7e2U, 0x3e8b217dbe01b4deU,
  0xbcd620aabdf470fbU, 0x3de57e3e3da9c9a9U, 0xbd26369dbdd116bcU, 0xbe8cea30be777bf2U,
  0x3dc6908a3d8f4c74U, 0x3d374ab73e17bed0U, 0x3d7c3bd1be069e92U, 0x3c6cdb573de5d166U,
  0x3e827eb3bd4bb40cU, 0xbdb201e9bd4d3e6eU, 0xbd39b9afbe8724d6U, 0xbd87fe373de82b19U,
  0xbe721718bdb3b593U, 0xbe98036bbc77a682U, 0x3e540febbe6c1927U, 0xbe101e3f3d433cbdU,
  0x3e47d576bc8b4d0eU, 0x3da51ab23ed17045U, 0xbdd35da6bead78a8U, 0x3cf9c076be4c7964U,
  0x3e9111bbbde8c545U, 0x3e68c75e3de61cd2U, 0x3e9cbebebe33b4adU, 0xbe9327993e878ac3U,
  0x3e94a6c2bef7bc5aU, 0xbea9ddde3de63283U, 0x3ea8f927bd92a154U, 0xbe5461cf3daa04a7U,
  0x3e5fb6b7bd69acbbU, 0xbe02296d3e072372U, 0x3d07c0303dc31c26U, 0x3d4b42ec3e81d012U,
  0x3e1f4e48be95b0b5U, 0xbe52ae043ef9c7fcU, 0xbc7fb379bdf74ed6U, 0xbdc4c5fe3d8440feU,
  0x3d5aa403be97ad9fU, 0xbdffd3523e2799f0U, 0xbdcb9246bef6667fU, 0x3dabb0093e722d25U,
  0x3e614548be57c156U, 0xbdf40e843e91c8d3U, 0xbdeec569bec50b17U, 0x3e1d3f6d3eba88beU,
  0x3e8b7b76bebd331eU, 0xbf991e64bf97e409U, 0x3cee59383ef1835bU, 0xbd4aa8703ea979ffU,
  0x3e127766bf45988dU, 0x3db76040bf748c2dU, 0x3d6424e33fbda01cU, 0xbeb141a0beeed9d9U,
  0x3e263938bda343cfU, 0xbe710e38bd3d74c8U, 0x3c80295e3e0af83fU, 0xbd4daaeb3ddf0c6fU,
  0x3e855905b9947ff2U, 0xbc3b0510be37ce50U, 0x3c76ee973e362169U, 0xbd9aab02bb950646U,
  0x3e54af23be9ceb86U, 0x3e07b011be1d725eU, 0xbc3306b23db8b102U, 0x3e0c1c27bc8f5e26U,
  0x3d28de0bbe8234adU, 0x3d394cfd3e0b6651U, 0x3e04ec32be72369bU, 0x3cdd7a843d1c1007U,
  0x3d50af843d1cf9ecU, 0x3e42e51c3dc83758U, 0xbe400423bcaa1032U, 0xbe36e96ebd8a68a2U,
  0xbe299f94bbff014cU, 0x3e31b9d93e44b317U, 0xbc693d6dbe9627cdU, 0xbd9acf4d3bddf1adU,
  0x3e68fdd03dc14f7fU, 0xbc5f78923bfda5bbU, 0xbdbd3d6fbce16bafU, 0x3df58404bc07d7b5U,
  0xbcb962723d30b488U, 0xbd0d53553e589005U, 0xbd110d5abdd3d31aU, 0xbe0c659cbd6195d8U,
  0xbe3471703c9d1973U, 0xbd8a7961bdb543cfU, 0xbe12629b3e6da435U, 0xbe1eda8c3e165e11U,
  0x3c8e93e0be6260feU, 0x3da7a4923d8aed32U, 0xbe1398a4be4c07bcU, 0x3e1764413e1954f2U,
  0xbe84aea23e054e1aU, 0x3e40f844bd0d46c4U, 0xbe450b253e2e8b83U, 0x3a2afe693d66f17aU,
  0xbdfed9c63cbb8927U, 0x3d84cc3a3eac516cU, 0x3de7d52a3db377c6U, 0x3e03688a3dc094a8U,
  0xbe9ae140be53cc3eU, 0xbe6a38913db9bd11U, 0xbe350931bea3fd74U, 0x3e025cd73e8b33e2U,
  0xbe54be573e3e3788U, 0x3d530315be3939a0U, 0xbe512560bc9bbe7cU, 0xbe852a343e92c3f3U,
  0x3d837f0cbe1aef67U, 0x3e03f2ea3eabba7fU, 0xbd30cc90be2c90bbU, 0x3dd90cd93e5fc0fbU,
  0xbea3e3493cab2e77U, 0x3dcc15fe3c29351dU, 0x3d43041fbea13c67U, 0x3e9a65413e7d8777U,
  0xbc4da3dbbd30ae4bU, 0x3e5ec1413eb60eceU, 0x3eb86b7b3fe0b3eeU, 0xbc855bc33f95d219U,
  0xbe8313a9bea82b31U, 0x3caa85ed3f488547U, 0xbd9d8431bebc374aU, 0xbde5d8553e573b66U,
  0xbec956053cbf1db2U, 0xbdbbba373f53eb26U, 0x3e5e282e3c78c8bbU, 0xbd34262cbe0cbc8dU,
  0x3e0ef3033d90650eU, 0x3e26478abe3c0901U, 0x3d28abe6bd9d7201U, 0x3cbdee6dbe2dd553U,
  0x3d706302be481ec6U, 0xbe0e5c223d878db6U, 0xbc97e1b53dc7b7ccU, 0x3d3045c63c1127f0U,
  0xbdd194ce3dcefa43U, 0x3d77bb32bd43f056U, 0xbd3535f13e5be2ffU, 0xbe0289eebd8c5665U,
  0x3dcf80d6bd179f72U, 0xbd74f159be8f83efU, 0x3d9b93963db9db5cU, 0x3dd2a14bbd98f067U,
  0x3e58507abe806677U, 0x3d97e5dc3d0ae976U, 0xbe3814b7bd82d636U, 0xbe591ee6bc7419bfU,
  0xbda3a0cc3dc43026U, 0x3cc90410bd8efa8aU, 0xbb63e1b4bdc960a1U, 0xbd958e7fbd8f6e6fU,
  0x3e0507f6bd7c4843U, 0x3e17904ebdb7d43dU, 0x3e09a417be46d45cU, 0xbd129b7b3d895c4aU,
  0xbd37d923be2496d2U, 0x3d655569be039ba0U, 0xbc6cc4ab3e2399cbU, 0xbde9e460bdf471b9U,
  0xbcea7e233d8694b3U, 0x3e052bda3d0433f8U, 0x3d0c80043d37273cU, 0xbe24bbf73d2a38bdU,
  0xbd333f9abd7f6df0U, 0xbde2ef2c3a955f31U, 0x3e8b78d1bc09d9a8U, 0xbdda3b373d5052ccU,
  0x3dac9b4dbbb6dd6dU, 0xbdabc19dbdcad0c7U, 0x3d40bad8bd5acbcaU, 0xbda790fcbdcbff57U,
  0x3d9486773d4641b7U, 0x3d8d0634bcd931acU, 0x3e1218dabc98aba4U, 0xbdaecdf03e066f5bU,
  0xbdcc2003bd1bd65cU, 0x3db63af4bd1602f5U, 0x3dc0c96d3bd91c20U, 0xbe48d13e3e5e20e4U,
  0x3e593a643dec472dU, 0x3e60b19cbe1425a9U, 0x3d1a191abd3dafe0U, 0x3d0940be3e125123U,
  0x3d222ce0bd899190U, 0x3dc555e5be27a3a8U, 0x3e2eaa3cbc27f96eU, 0xbdbd3b83be25460aU,
  0x3eda62653ce36a69U, 0xbdd876f0bf068ee7U, 0x3da61111bd3de7c1U, 0x3de0043cbfc3bf6aU,
  0x3db68469bfbb372eU, 0xbe9f0047be4994a3U, 0x3e3723da3e8c9f3eU, 0x3f62820d3dc13f57U,
  0x3e3e16b93e564eccU, 0xbe9601913e37c34fU, 0x3c4c8303bf1833eaU, 0xbd768ae1bc8a7d2aU,
  0xbd02c19b3d7fcdf6U, 0x3caa11313e151d2aU, 0xbd3e2ba23cb38d3dU, 0xbd4c01dabd9e0702U,
  0xbd236fe63e3ae5b4U, 0x3d53e02f3e0e780dU, 0xbdb29497bc93aa05U, 0xbd7c11b0be12260dU,
  0x3bded0f5bd8b6e3cU, 0x3e177289bc11e96bU, 0xbe622163bdf8c7c5U, 0x3daa29abbc216dc6U,
  0x3d83e7243d10ecd0U, 0x3dd62e723d77ccbfU, 0xbd9e43f2be13e4caU, 0x3daf5da33d4fe4bcU,
  0x3e01a2523d803038U, 0xbde4ee95bcff65beU, 0x3e33e4c53dc867c1U, 0x3ca855e8bdb0dff3U,
  0xbd1657abbcf3f619U, 0x3e025313bc8bcc5eU, 0x3ccca5503b9b9d9eU, 0x3d9f9d3ebe2ff6a2U,
  0xbd2a687bba13243cU, 0xbd43b398bc9556b0U, 0xbc36bd7b3c6e4ae5U, 0x3dd48c503de9eb0fU,
  0x3dc129bcbd88b327U, 0x3e1abcfa3cc4b327U, 0xbd2b8a39bd64c9d2U, 0x3e10c71cbcc11410U,
  0xbda1540dbdda1aecU, 0xbd08d7d8bda229b8U, 0x3dabdeb33e43608aU, 0x3d576000be0d2aa8U,
  0xbd5a06ac3cbb0f9eU, 0x3e0c0eaabd80621bU, 0xbda005f03d21a55aU, 0xbcbeae23bdae3cccU,
  0x3da96ceabb32a950U, 0xbd9ae0673c9245cbU, 0xbdf73074bc3c6e43U, 0xbcab7cb6be3a89a6U,
  0xbda6898ebddef307U, 0xbd88a8c6bda31a6bU, 0x3d8387f63d27aa9aU, 0x3dac51a03d5772e1U,
  0x3cdaf4473cae55c4U, 0x3e0d7251bd3b4e9bU, 0xbe3c0bfb3c0cb53fU, 0x3d947ac83df60b65U,
  0xbcbb561ebdab0d1fU, 0xbb6fd77bbcb2a677U, 0xbe5cb638bcd7f869U, 0x3dc040a9bd4df2e0U,
  0xbd99496cbdbcfd71U, 0xbc3529edbdc4f4c0U, 0xbd1ebfe03cc09059U, 0x3dba031e3ce723d1U,
  0xbceaa0263c2d3de0U, 0xbde102cebd9613aaU, 0xbdde218b3d0fceb0U, 0xbd25e89cbd0bcbffU,
  0x404deada3f9dca92U, 0xbdbc8f96bfc4fa19U, 0x3ebb43e23e99dd27U, 0xbd8b0cabbe1348fcU,
  0xbefdccab3f61755aU, 0xbe34393bbfc83b2bU, 0x3f86abc33f17744cU, 0xbe821901bf0bfdc5U,
  0xbddf93cabc21d366U, 0x3da30bd8bc9cdc59U, 0x3d3c2903b9ed3d82U, 0x3d9628be3dcc5b0cU,
  0xbb3c37cb3e1c883aU, 0x3c9fc15f3dd052bbU, 0x3dc469423dc0ea3bU, 0xbdab8ef0bdae5d7cU,
  0xbd067ff03d8ddd36U, 0xbc15f7283d2b3d30U, 0xbcca7e3dbdae4310U, 0x3ca58f643d715cdcU,
  0x3dcc8e07bd68e694U, 0x3c2166e53d98ec39U, 0x3c31847cbca1520cU, 0xbd659f893d2f6c3eU,
  0xbd9cd16bbaa71376U, 0x3b146a223d15a1c8U, 0x3d6920d43d9299b8U, 0xbd0f8b473dba09d9U,
  0x3d9bf7a6bd5284ffU, 0xbcd8af4abe00d687U, 0x3dc5a4443d7b9b7eU, 0x3d9445103d52ead6U,
  0xbc58ec0a3d3bcd52U, 0xbcc5c3c23ceca6eaU, 0xbdd4cd0abd409a34U, 0xbd38fd693d863d43U,
  0xbc96facf3d12ae95U, 0x3e0db09dbda50218U, 0xbc8f81ffbcd85f06U, 0x3cfa665fbc601937U,
  0xbd74afaebdab2b94U, 0x3ccb7ce73d985e33U, 0xbd7554f5bcd14280U, 0xbca5c18b3ce29fffU,
  0xbd1bafca3c0076deU, 0xbb8a3c74bd06d1b8U, 0xbd126764bce6528cU, 0x3d05a3e23d3d14feU,
  0xbdc6dc343dbde742U, 0x3dbdf6753d84fec5U, 0xbd9d9c79be11774fU, 0x3b89e9803dd14a5aU,
  0xbe54f72fbda702c6U, 0x3c7538293dd5bb71U, 0xbe1e861bbe1db423U, 0x3e01797d3da5df2fU,
  0xbd9e2be9bd8d150dU, 0x3dc724df3dc49c34U, 0xbe556135bd0eb804U, 0x3e03ba713e62458eU,
  0xbe0f1f22bd8f07deU, 0x3d797bb93dd19bdcU, 0xbd2a0547bd3ee882U, 0x3d153e663da2cfafU,
  0xbdfeeb23bc53d78fU, 0x3cf39eca3d55f4f4U, 0xbe549cdebe5b904dU, 0x3db60b7e3e16a5aaU,
  0xbe3ae23dbe086589U, 0x3e1564513dbc5bdcU, 0xbe70b3bdbe180cf5U, 0x3c5665a53e13bbccU,
  0xbe9d8c07be08409aU, 0x40154a17c021c071U, 0xbe165b2bbead1de4U, 0xbf1346f63ea820acU,
  0xbdf37607beca16d2U, 0x3fa6158f3f7b975eU, 0xbd968c1cbff04734U, 0x3fbb7b20bf8a6677U,
  0xbece5c683d867afcU, 0xbe840147be5d03beU, 0x3d80a06ebd80dd2cU, 0xbda99b6bbd7be2bdU,
  0xbdc2c5f6bcca7d8dU, 0xbc8b41d93c812928U, 0x3d2749563c312339U, 0x3e01ad083dd9a5d8U,
  0x3d73cfddbe0a0cb3U, 0x3c4e25c93e19dc7dU, 0xbdeb96d23da7f134U, 0xbe136388bc2a2843U,
  0xbbcad5e63da87250U, 0xbc3f9ff1bd8aabe8U, 0x3d08cfde3c2ebc8cU, 0x3cc8950a3d8316f9U,
  0x3b6e227dbd8e97f6U, 0xbdcb6b7cbdbe52deU, 0xbcedf5d43d5adfbaU, 0x3c182a933d9a38a8U,
  0xbba3ce5ebdb059cbU, 0x3d18dea8bd55075bU, 0x3d3b2076bd3acbe5U, 0xbd15595c3c9b140eU,
  0x3cfaf7413d2dd009U, 0x3d09a8e13cd12101U, 0x3db8994e3ddcc5e1U, 0xbe158606bda47797U,
  0x3dbb2fc43cdaf6edU, 0x3e0369e03e648ea7U, 0xbcc84ec63de9dc7eU, 0xbde7c663bd2dd87aU,
  0xbcb2e672bd392fdbU, 0xbe2a19f6bc90f2f7U, 0xbc4a20193e3ec6efU, 0xbd1b1471bd770bacU,
  0xbc586e21bd867f18U, 0xbbffb9943cf2d74bU, 0x3d623e743d09e9caU, 0xbb5be048bcecf36bU,
  0x3e3eb5b93c3c54a1U, 0xbd916dbdbd2f9d74U, 0x3d095d2e3e4a2975U, 0x3d1892aabcd9c057U,
  0x3e8e472c3e0342b8U, 0xbd8853bcbdffdc5dU, 0x3d752ff13d894a67U, 0xbd92d2ee3d01fe40U,
  0x3c42152c3e5cc77cU, 0xbdd82a14bcbfe16aU, 0x3bdc491c3db8fa7bU, 0xbd495b92bd76b3b6U,
  0x3d12b7b83e68d1f4U, 0x3d7142d9be63eb1eU, 0x3daa42e93e7fd98cU, 0xbdaaa4883d774007U,
  0x3ded36f73dc2a661U, 0xbe46350dbd742c73U, 0x3e1f37ad3e53c5a6U, 0xbdf9607bbdde38deU,
  0x3aa8b7653e80b300U, 0xbe1d1fd4be6f90e5U, 0x3e6ac17a3eb2d7cfU, 0xbc86aed4be509db3U,
  0x3e26f9db3e40a54bU, 0xbe778be2be4a2379U, 0xbe60f8d3be81e3eaU, 0x3e63212cbfbb3d93U,
  0xbedba87cbf2cf2a3U, 0x3da4a9db3f32b7f1U, 0x3e6e889abe72216eU, 0x3daef59f3f0ef601U,
  0xbeb2865e3e5f483dU, 0xbd47af69bf46fc31U, 0xbd896f333cbd2d9eU, 0xbe0556053c9a8287U,
  0xbcb228023d7b98f8U, 0x3ddd7ccdbe011c85U, 0xbd340aaf3d96c801U, 0x3c5220aebdc8b4c2U,
  0x3e2404e13df4e21bU, 0x3e4deb3c3db00601U, 0x3bf563103cd063c4U, 0xbd85dece3cc70e26U,
  0x3e5b9128bdc4c5b6U, 0xbdc3eaecbebc2a66U, 0xbe0cf3a7bd99147dU, 0xbe406cf13e525a0eU,
  0x3cecfa233e712a82U, 0x3e8e19b5bda10dc0U, 0xbd59ac11beac73d7U, 0x3b806f5c3dd971c2U,
  0xbe0a0fafbd7b7036U, 0x3e4406543c53c1bcU, 0x3c49c462be5047c7U, 0xbd7478b73d0860caU,
  0x3e72f7f9be566ac3U, 0xbe2c9b113d90cba2U, 0x3e9eca4e3d63c048U, 0xbdb3099e3e905978U,
  0xbe965fc3be255de6U, 0x3d9ded823c886ec9U, 0x3d8e90273e86473dU, 0xbe3975aebdb93dfaU,
  0x3df7b9e63e48509aU, 0x3ea714353de9f3a9U, 0x3e1d0284bc271caeU, 0xbdcec3663bd19909U,
  0xbda001be3e17f17aU, 0xbdd784773e17438dU, 0x3cbf5726be273a28U, 0xbda13fbdbcaf92b4U,
  0x3df0ac963d53c66dU, 0x3d0df4543ca1f710U, 0x3df3414b3d24427eU, 0x3c79a44fba945ebdU,
  0xbe6c86bc3da158d7U, 0x3e5b4e99bde09552U, 0x3c81aa8ebe22a815U, 0x3df15cbabd3fb1dfU,
  0xbe600c953cf8c80fU, 0xbf003141bdbb6dfdU, 0x3e2f1f3fbe6bd4b9U, 0xbd0d06e1be8c7834U,
  0x3d13fae5bc466de8U, 0xbb9bb6703dff23d8U, 0x3d28fd51bcb099f3U, 0x3e28a817bdf5d835U,
  0x3d911fdabc18dc0cU, 0xbd93a4b1bdc8b5aaU, 0xbe6b149a3dc1ae63U, 0xbd519462bdbf865cU,
  0x3d6e67a03d94b873U, 0x3c68edddbdacb74fU, 0xbde748243e15d827U, 0xbd8951e43e13788dU,
  0x3e0735853dae9213U, 0x3e95c887be63cba0U, 0xba94dbdebf05bd15U, 0xbf2f6813beb12be5U,
  0x3d3330403dd18451U, 0x3ec9a3efbf05cbacU, 0x3dedb3c03ec55197U, 0xbebb5313bf3a7fe4U,
  0x3d6683133f8b55b4U, 0xbe767962bcfef893U, 0x3efbc22a3d2cebffU, 0x3dcd6f5fbd6164dcU,
  0xbc9545243dbac513U, 0xbd8360c23d077844U, 0x3db77352be8aea5aU, 0x3d666d1e3dea7591U,
  0x3ce136d3be03ae55U, 0x3d1b8ba4bd58cbd6U, 0xbe7b686abdae7bd2U, 0x3e4fa5223dd0aeb0U,
  0xbeaeae423e12f7faU, 0x3d318127be6dafe1U, 0xbd85020dbdb749baU, 0xbd116cee3cbfce0bU,
  0xbe64a091bc162ae0U, 0x3e18eb1ebd30e0baU, 0x3e5e35edbca014afU, 0x3e84f5773e87148aU,
  0x3e4b5d123e32a285U, 0x3d8b67eebe9576bcU, 0x3da667583df82216U, 0xbd9665e9bd40325bU,
  0xbe2607043d078ab0U, 0xbcf4b605bd8695b7U, 0x3c4e64dc3c24bd1aU, 0xbde325e2be43e2a5U,
  0x3ea38b87bd71dbeeU, 0xbe0589bc3e43f24fU, 0xbe76e32fbde86714U, 0xbdb185b63d9ffd8cU,
  0xbc0e5161be25f24aU, 0xbdb2a597be0b43f1U, 0xbe98d78c3c1df479U, 0xbd035a2c3dcde3efU,
  0xbe684852be522424U, 0xbbed69503da45239U, 0xbe15a0d6bd3767caU, 0xbdfcb050bcdf7aabU,
  0xbd61d9c73cea0efeU, 0xbc471e28bec2d588U, 0x3df93a6dbb34a4e3U, 0xbde861ea3de1fa9fU,
  0xbe0ce33bbddb8ea8U, 0x3e1c54eb3e47df65U, 0x3e62d657bd146ffbU, 0x3e03a2eb3e7b6691U,
  0x3c1d05eabe54893bU, 0xbd5452913e55aed3U, 0xbe12ce33be45c484U, 0x3d9f99023d7e9f6fU,
  0x3c221e94bd0d7546U, 0x3e3f07d5bbe6937cU, 0xbe06a926be6b7de7U, 0x3dd902013ed9241fU,
  0xbe400b23be55b99bU, 0xbe29958d3e45175aU, 0xbe85c2b6be9a87c9U, 0x3e24c8723e5a5c09U,
  0xbdf582223c9ce16dU, 0xbcf6e4ad3e2b7afbU, 0xbe3c3993be97ebc4U, 0x3e85c1833e7dfe03U,
  0xbda85c36beae1f44U, 0x3da4428e3e13dd2bU, 0x3c4b239bbe446c05U, 0xbd90ce333eb1204dU,
  0xbb92b0f4bf0cf865U, 0xbe5d833f3f7d6cd5U, 0x3eb15e053ddfff16U, 0x3a829be63e26b072U,
  0xbedc575ebe9944b3U, 0xbd9cfe6ebd50746bU, 0xbea0dd763db0ae53U, 0x3d943565bd619e45U,
  0x3db5981cbdb1eb93U, 0x3ea40e383da31f9fU, 0xbcb0e3f53e5befcaU, 0xbebfa978be15ba71U,
  0xbd3e79763d8578a5U, 0x3e838a423ee11072U, 0xbe27e3123d91b692U, 0x3d3600e33de6ac03U,
  0xbe8969ddbe8cd1daU, 0xbdf10771bf1257b0U, 0x3df9c783bd87d28bU, 0x3e61b0333dc32323U,
  0x3e460bdfbe98dc5aU, 0x3d9888e83e165eceU, 0x3ecffe3bbe464837U, 0x3c053cfc3e0aef0bU,
  0xbcdb27833e6aaaf4U, 0xbe1beb62bc04ac39U, 0xbd4240d6bd1eac98U, 0x3e5ad242be13bdfcU,
  0xbe271ba93dcb127fU, 0x3e6304c63e96f5bcU, 0x3e598090bcc4cb2eU, 0xbde0083dbbff48daU,
  0xbe0e8c6bbd98bea2U, 0x3dff9968be7dfcb6U, 0xbea9062fbda3eaa4U, 0xbed70cacbdfb0766U,
  0x3d8e4a0cbe86679eU, 0x3f05f35cbea436bfU, 0xbb6315a13e9bbb90U, 0x3df00bf53da36254U,
  0xbdd24b2abe58b7bfU, 0xbe9a4b13be218050U, 0xbe40a7f9be940862U, 0x3e2472b1be7a7e01U,
  0xbe6e8cb63e78d0b0U, 0x3e431a7dbda0e216U, 0x3e102aebbd43e691U, 0xbd245276bd4c105bU,
  0xbe0057f53d84785bU, 0x3d4e8d02bd317587U, 0x3e6d1e053e8bfe67U, 0xbe63b48fbe2f3845U,
  0xbe5011e23e21f4bfU, 0xbd8ddecfbd1ac55cU, 0x3e2c8f74bda016beU, 0xbd15a8803e9da435U,
  0xbec8d8663e17535aU, 0xbe34cd013e815b04U, 0x3e93a019be08d252U, 0xbd115bd43defae99U,
  0x3dff2c373e5956eeU, 0x3eb0281abe856b40U, 0xbeab1bb9be263faaU, 0x3bcc790dbd90640bU,
  0x3dfa26993ef094cbU, 0x3dcbafc2bdac5744U, 0x3e14d49b3e7cd444U, 0x3de8a88cbd5e6894U,
  0x3e41da103e66d59fU, 0x3dc48f113d77f721U, 0xbe039c023deae9a5U, 0xbea134f23e07e4a0U,
  0xbe3aa3953e7cd413U, 0xbf11d3813e4e9727U, 0xbe469d9fbf64e8acU, 0x3e3cea47be468689U,
  0xbddcc7843c50b45eU, 0xbec9d337bf396aeaU, 0xbe09b07f3f2220fdU, 0xbe00e9d0be06cde3U,
  0x3e1ddd33be3ee677U, 0xbe00b400bc6b5e76U, 0xbcf9be2f3d996d26U, 0x3dc1602cbd6401bfU,
  0x3e76ebf3be256db1U, 0x3d165e42be260caeU, 0x3e657fbd3d924454U, 0xbdef25b63e81486dU,
  0xbe65da563dbcf430U, 0x3dcd1b91bd5a4bebU, 0x3db1c50a3d6a6b21U, 0x3eb510a0bdcb7c9aU,
  0xbda2b46fbe49beb2U, 0x3d9e9a783da025e7U, 0x3e299f143d661e34U, 0xbd22c859be3a50bcU,
  0xbd5c35c33e3a24e9U, 0x3df17d9dbca7ebdeU, 0x3e316c56bdbbadc7U, 0xbe179557bd7b7818U,
  0xbdc474513dd39f31U, 0x3db0a45dbd7d8d3bU, 0xbc9143a2be679a63U, 0x3e0c0bf0be614a81U,
  0xbd1548303e3ea2cdU, 0x3e0f727b3cf70080U, 0x3e4fc39b3d7317daU, 0xbe02e43e3e342befU,
  0xbe8b262cbdc7bf4dU, 0x3e308f393dd41b71U, 0x3e89b9283d5477b4U, 0x3c8f42443e91c55eU,
  0x3cba65d63dcb69daU, 0x3d81f8ddbe57d1ecU, 0xbcf964bf3e149516U, 0x3e0e0a78bc0b5fb8U,
  0xbd6c13413e2eaa66U, 0x3db5dc3ebcc00082U, 0xbe161a8fbd86e1d1U, 0x3db7c4523e5541f5U,
  0x3d8f87ef3dc3234bU, 0xbe6adc103e6d4e2aU, 0x3e3855113baa9f2fU, 0xbe09d8cc3e3cf780U,
  0xbe897f23bbe45560U, 0x3db60b44bdaf5381U, 0x3e493939be896e71U, 0xbe1e321c3df4bc58U,
  0xbda044ff3e0299e8U, 0x3d95cab83e029298U, 0x3e8aaaeabe3d0c0cU, 0x3db39e783e12acbbU,
  0xbec0da57bdc525dfU, 0xbcf514ca3e9ff6b6U, 0xbd27baf5be2d6cb1U, 0x3b037b0f3e7c6fc7U,
  0x3d243b703dab6d98U, 0x3e073b4dbdffcc85U, 0xbe4d4cb7be10d531U, 0x3e218ed0be10a674U,
  0xbeeab73bbeb2a664U, 0xbb0a82b13e38107dU, 0xbdd71762be7e24cbU, 0xbda9fd773dc3112eU,
  0xbd3ecd9fbe9673a8U, 0x3cea87453dd96e6bU, 0x3f2716bf3f03b090U, 0x3e1e3e043cfae2f2U,
  0x3ed8c86fbe0ca156U, 0x3e86f60b3f39e75aU, 0xbf07c87a3f280a23U, 0x3e2dd360bf808730U,
  0x3f14d71d3e64fe62U, 0xbb6e81033d244beeU, 0x3e60b6e23e07424cU, 0x3e3aec60be3b8887U,
  0xbe73038e3cf92a8cU, 0xbe47e555beb91863U, 0xbe3cb898bdada69aU, 0x3d1ffe9b3db4310eU,
  0xbe2062ce3dc1625dU, 0xbb4481f53e10aa74U, 0xbe93e101be26c97aU, 0xbe0317e9be60fc62U,
  0xbc5a0e3b3d233f42U, 0x3e9858103dc1f4d4U, 0x3e1b3b04be081a44U, 0xbd1de6d0be81328eU,
  0x3db6cbf7bd765b81U, 0xbe34d310be6dfc81U, 0xbb80d66cbeb26a64U, 0xbd315ba9bc509d00U,
  0x3d08d39339b0cbd1U, 0x3e9ce8ebbd90ba98U, 0x3e22d3a9be78ef8bU, 0xbe329ab93dcb4bbdU,
  0xbd01a6553e210002U, 0xbe2b055abe26d35fU, 0xbd28d9d23e173ddaU, 0xbe225c08be3701dcU,
  0x3d976a71bdb62a6dU, 0x3e8f6f8d3cecede7U, 0xbe4660c83db077fdU, 0xbdbd213ebe5b16c2U,
  0xbddf54c53f22d7ceU, 0x3e88a1e5bdae4db3U, 0x3da13551be2c641dU, 0xbc1b2f34bd90060fU,
  0x3dfafb28be36022bU, 0x3e38258dbe272c95U, 0xbe4051d9be2a9135U, 0x3dd03a2b3dbd967cU,
  0xbd0f7cf03e3d5f87U, 0x3d90fa02be0bcf08U, 0xbda7d2a2be64e942U, 0x3e84b3a8be640ae5U,
  0x3e9e65773d9af4a5U, 0x3ebf9300bd9098a9U, 0xbed39ff3bd3a964eU, 0x3c862874bd068540U,
  0xbead23833caf4203U, 0xbd753effbc12ec3aU, 0xbe4c3dd53d104885U, 0x3e8c273a3bc88df8U,
  0x3d53190ebe13406eU, 0xbdc5979abebaa534U, 0xbe64e1f43d8f3332U, 0x3e9d2013be10fa9fU,
  0xbe6cf62ebdfc104eU, 0xbcabd8b8bdd3a453U, 0xbe2074a53eca3084U, 0x3e78f3833ce30a77U,
  0xbda582ae3e7e7214U, 0x3d6b14423de3e11fU, 0xbd868397be4c423cU, 0x3e13ff9b3e48274fU,
  0x3df3657d3d31cc4fU, 0x3eb1bc38bd09eeceU, 0xbed937d73e91ac2dU, 0xbf28f7f43f79e728U,
  0xbd897061bf614087U, 0x3e92f096be84282eU, 0xbe22e846be43e90eU, 0xbf80e1d73d134da9U,
  0xbdfdc9603d9f6e18U, 0xbf2320883f420680U, 0xbe1994a0bda6217eU, 0x3ec36cd43e439ab7U,
  0x3e45cadcbd85a52aU, 0xbe4aa0d83f067ee9U, 0xbf0ac31e3e808f79U, 0x3dd20b8dbd9c961cU,
  0x3e2940ec3e89b46bU, 0x3ef3d5e13de728a3U, 0x3e69967abdb13d74U, 0xbe89436e3ddffca7U,
  0xbee3dd5bbded6cbbU, 0x3e7c16f43dcaaf07U, 0x3cfb6058bde4951eU, 0x3e907914be00f944U,
  0x3c7cd7e2bc5a71e9U, 0x3b9a062d3e84a4cfU, 0xbe8a93cb3db7e148U, 0xbe7698263dbe20c6U,
  0xbe4c393a3d22ace8U, 0xbe542cd8bdb25079U, 0x3d0695ec3e1c50cbU, 0xbe2538ee3e2d4d13U,
  0xbdd29bd33e4722f2U, 0x3e7e02ccbded4c1fU, 0xbd9513cd3d424e2dU, 0xbe8c0c11bdab5accU,
  0x3d82ab8d3db91535U, 0xbecb7d29bde080adU, 0x3d632e45bd85eec6U, 0xbd91deffbe38e4d5U,
  0x3d782beabd4842afU, 0x3d518a51be32ced6U, 0x3ef2d734be3461cdU, 0xbdb0811abdb55047U,
  0xbc5c686bbe034149U, 0x3d1b6c80bdc052ddU, 0x3e3280eebd832dc4U, 0x3dd3e9cabe93585bU,
  0x3e099173bd62f4d6U, 0x3e987a7dbdecc815U, 0xbd1574dd3c3d8f13U, 0x3d7bffc83d97151cU,
  0x3e66aa993d3abcbeU, 0xbe312c0d3e2c9a41U, 0xbe0a0b593de92a4dU, 0x3dfde2953e456aefU,
  0x3e054801bdd3e958U, 0xbe9649d83caab51dU, 0x3d8ef465bed1573dU, 0xbf01be863d5f0ec9U,
  0x3e3d72653ec60596U, 0xbd4c09b2be6786fcU, 0x3daff42bbe823f2aU, 0xbe67c3da3da9f0bdU,
  0x3daabcfabe82a05cU, 0xbda27ff0be71a03dU, 0x3e8715c43d17cbe0U, 0x3c2b76b33d30a845U,
  0x3f1138dbbe870b66U, 0xbeba9c3a3e9a1f63U, 0x3ec7708b3e22bfe5U, 0xbdd42ef03dc2f7e5U,
  0xbd070c3f3d2e215cU, 0xbe919f42bdb472e0U, 0x3ed55e253e5e28d6U, 0xbea06344bdad4a0fU,
  0xbdcd788abf93f39dU, 0xbdde3877bf06bf33U, 0xbefbde55bf0455c3U, 0xbdbcfa313f2f4749U,
  0x3f12a5ed3eeb2e48U, 0x3d063c42bdb7a8e9U, 0xbe715f2cbea85da8U, 0x3c7df8bdbf0c340cU,
  0xbd866b313c0ca347U, 0x3e369cc03daa8c73U, 0x3da5a2933bc4ed99U, 0x3ec4d5f2bea0f966U,
  0x3e687046bdea2dd5U, 0x3dc84e44bb71b38cU, 0xbe0add383d0cdde1U, 0xbdd78a6f3de7a3f4U,
  0x3e8245b8be26a31aU, 0x3d5767893c5fef52U, 0xbe22b6d2bd88b94eU, 0x3d05de2abdc239c4U,
  0xbdd740f93d782593U, 0x3d190e2cbdd7cfaaU, 0x3cec282cbe50efd8U, 0xbe089f043e5095deU,
  0x3d6d0286bd0a1a62U, 0xbd9bb2c6be9f7b32U, 0x3e4856233ccde961U, 0xbe9719873bf552aeU,
  0x3e23d2683da5d76eU, 0x3dd7325e3d499320U, 0xbc444b5ebba4c986U, 0xbdeb706b3e5f023cU,
  0x3d0a58afbdb500ccU, 0x3e59cc23bc5ab4b3U, 0x3d3c034d3e062c65U, 0x3e2e0fbbbe9febcbU,
  0x3d54168abd9a56c3U, 0x3d5debc5bc853b85U, 0x3d8e3116bbd6000fU, 0xbd9b821b3e89373eU,
  0xbca0404b3d878b71U, 0x3e1ddcd5bc478d3eU, 0xbcf7e549be3c477dU, 0xbd8c392b3d7c1cd0U,
  0x3e79c5c93d244a0fU, 0xbd933a033d76ac73U, 0xbe0051cf3e02ad70U, 0x3d0188443d91ffcdU,
  0xbe100cb43d0fb5f9U, 0x3e3fad6f3cb1546eU, 0x3ce6c3a4bd11ff73U, 0xbd06838f3e2bc9dfU,
  0xbdc16f7dbda7b57fU, 0x3d9b6a93bd468568U, 0xbdd37f303dbfcbd7U, 0x3e5e0c213e0b1345U,
  0x3da06f863e40b15dU, 0x3da57bfabde3a254U, 0xbd5009333dab4c9fU, 0x3e0ca2d93e64401cU,
  0xbd8ccf063d4af169U, 0xbd393dd73e014acfU, 0xbe44c643bd99c5a0U, 0x3d83928a3de26bdfU,
  0x3e592c2abe6967deU, 0x3d9fe1b33e6eb71cU, 0xbd4b651bbeac5cbaU, 0xbe42da53be42bb17U,
  0xbd701a263da060f7U, 0xbe751a6ebeb554adU, 0xbdcfd418be80de5fU, 0x3e03c58abd8553feU,
  0xbdcec42dbd41474eU, 0xbead1013bfcbe933U, 0xbe202098be39339fU, 0xbf347b5bbefcd6f3U,
  0xbe551c7c3e8b924cU, 0x3f58cb803ebd45acU, 0xbc58bd973e41a1d5U, 0xbf2200eebf1ca423U,
  0xbd9b0720befb5178U, 0x3e01c14e3d00e708U, 0xbe767d6abd37a2a8U, 0x3d4593bd3d1847d1U,
  0x3d996309bd723872U, 0x3d6f8f343dda9a87U, 0xbe9140a4be960108U, 0x3d62db443d84bdb4U,
  0x3ca312093dc90596U, 0xbe7980dbbe9603d8U, 0x3e786c893e0cc0bcU, 0x3d767fecbcfa0e96U,
  0xbd08a889bd98697aU, 0x3d72e75bbe15056fU, 0x3dd6a936bdbb0d5fU, 0x3db72bfd3d0c752fU,
  0xbe346fc2be199aedU, 0x3d14696ebde800b2U, 0xbd40539ebd2bc463U, 0xbbd9fb6d3dfbbddfU,
  0x3d406b0fbd13c866U, 0xbe1b56a43e2306f3U, 0x3d8015913d775cdfU, 0x3cef8aba3cafedc2U,
  0x3e0fe8d23de885d7U, 0x3e9bdcb1be4667efU, 0x3e68073b3dee8137U, 0xbd537af3be30628dU,
  0x3e329b703c5d696fU, 0xbc0086ddbd92c445U, 0xbcc02169bd841b7cU, 0x3e429ceebe22b36fU,
  0x3e0a1b4e3e32596cU, 0x3e0e1d5f3e35c729U, 0xbbb84da0bdb9d45fU, 0x3e5f55df3e1dc0e8U,
  0xbd46269ebd9d2368U, 0x3ec8b16c3e0a54bcU, 0xbe4a3f323e045e0aU, 0xbd38a6663e408d0cU,
  0xbe26c8333ec6d849U, 0xbd47bf233c1764a4U, 0xbdb106233d7db43cU, 0x3dedc561bd800daaU,
  0xbd98c3903d010567U, 0x3e8f88fbbe31f4efU, 0xbdaac6493e432a8bU, 0xbe2d396bbcb1f5aeU,
  0xbd86c5413e041702U, 0x3e7ffca9be021922U, 0xbdb5b00b3e10c678U, 0xbe4cb3ce3c3d13f4U,
  0xbeb4697e3e2e408dU, 0x3da408353da4c360U, 0xbe7776573e97491fU, 0xbd2594803e011a53U,
  0xbdb4942a3cf3e07aU, 0xbe601d38bdfa09feU, 0x3e166a473e3eed46U, 0xbdac6dd0bd934047U,
  0xbd8a66483ef50c08U, 0xbd607d9fbe0847ebU, 0xbdfed63c3e53c8c0U, 0x3e17d3fa3da7a7a6U,
  0x3e8989fd3dfe4f75U, 0x3e9bae7cbe595b09U, 0x3fb01ba53f8950a2U, 0xbe7e49623f001206U,
  0x3e80f7a8bd6452adU, 0xbe0f47433f0229b0U, 0xbee0d0d43b8afde2U, 0xbe5315bbbefdc588U,
  0x3e1bd10c3ee18f97U, 0x3d7f6a9b3e6ad787U, 0x3ddbd442bdbee65aU, 0xbe4338df3d1cfae2U,
  0xbe394196bd7888daU, 0xbe1ecbf9bd1d54ffU, 0x3e302b4bbe685f8eU, 0xbe7bf6773eac7c21U,
  0xbba11444bd965930U, 0x3e29e616bde6b0c3U, 0xbdfb7ce3bc19483dU, 0x3d71df56bb8bc9c6U,
  0x3cda05b13f07876cU, 0xbdee25ec3d761a1cU, 0xbdccec2fbe5e6f83U, 0x3e4bb4aebe77028aU,
  0xbe326eca3e46579fU, 0x3d7817463dea9307U, 0x3c84a1fcbe2de626U, 0x3e365fd43e0df8f9U,
  0xbd8411b3bd719472U, 0x3a870f063cf98bf9U, 0xbdc31c8cbdd8a384U, 0x3edadc42bdcdd898U,
  0xbe0bc3d6bdcd06e3U, 0xbd198c1bbd6be93aU, 0x3d76bfffbb8f5515U, 0xbe36c9d0be20a6a6U,
  0x3dcde2de3d0e671aU, 0xbd08538b3b230314U, 0x3d1d575e3f04bfb7U, 0x3e1cc2ec3db49586U,
  0xbc97c2383db93dbfU, 0xbec905243e3070a7U, 0xbd04ef633bf2b159U, 0xbe05233e3e877f82U,
  0xbdf187a03cc020cdU, 0xbcb0f4f6bd0aaf58U, 0x3cb90b97bd36e33bU, 0xbe37e55f3e11246cU,
  0x3c97b1f7be616d8cU, 0x3eb288373e54418fU, 0xbe992fd73d760f4bU, 0xbd63d463bec4530dU,
  0x3db41d8fbc967089U, 0x3e3b096c3d04160cU, 0x3ddec672be901c98U, 0x3dc6fc973dc99fb7U,
  0xbe2f14263c70f99fU, 0xbe3c7197bd91172cU, 0xbdf76e953dc9bc3aU, 0xbe5fad66bdef6374U,
  0x3f20cb93bd183085U, 0x3e622aa73e733d99U, 0x3e87f9dcbe1384c2U, 0x3dd48665be4870b9U,
  0x3e0c000bbe443004U, 0xbc81a99bbe13d9cbU, 0x3eaa34463e082212U, 0xbc8b4c6bbea8c918U,
  0x3e0030b5be012634U, 0xbcab68843e4bb75fU, 0x3e15c04c3a419140U, 0xbddebffd3d8611c9U,
  0x3e78c0db3e0bea27U, 0xbd72ea533e8608abU, 0xbda4cdd1be38c743U, 0xbcbe20983e96c043U,
  0x3dae78acbe8167d0U, 0x3f9f37ccbe1adcf2U, 0x3d1ce1e8bea36f97U, 0xbf9a6f63bc436350U,
  0x3daf782abd5e8464U, 0x3e1d282e3f05cdfbU, 0x3e0edd6dbeeff813U, 0xbcfe94c53f1f99dbU,
  0x3ea2d31abe7ab36dU, 0xbd29c4e03db7a3d2U, 0x3e4fc283bd0a9a0eU, 0xbe458fe7bdf4a0eaU,
  0x3d80702ebe9cf5ecU, 0xbd7d583cbc4ff734U, 0xbe0c46f1be3c9d40U, 0x3e362cef3b8cf73dU,
  0x3d8bf20abe1b2f58U, 0x3e32668fbcb33aeaU, 0x3cb0e6363d659fdfU, 0xbda112e93ec0251aU,
  0xbd3ac5ed3d8796c7U, 0x3af074fc3e0c8cafU, 0xbe7302103d059e06U, 0xbed40c063e047284U,
  0x3cfe21c0bdfa772fU, 0x3e6e5e47be384d6dU, 0x3a8fb594bbf83cf0U, 0x3d4d2d323e7b98d9U,
  0xbdc9749f3d8b349cU, 0x3ddc47d23d475352U, 0x3eaf3d9a3e4cf2f9U, 0x3d1ce7a53c8d76f3U,
  0x3db58809be2d3e89U, 0xbe3fe2223e556492U, 0x3dd55f92bd606a5dU, 0x3ded1e0cbcd90eb6U,
  0x3cf31d80bec7f57cU, 0xbd8c21d83cb0254aU, 0xbd9325f63763da1bU, 0xbe30b3a93dad09d5U,
  0x3dc6797fbc998c56U, 0xbd6c9bbdbd47b28dU, 0x3ea53e12be14e716U, 0xbdd5e8fabd9ac4f5U,
  0x3e62f0f2bd82cbffU, 0xbe1f343bbe291e41U, 0x3dddde54bd4585bcU, 0xbe08f126bdba0fa9U,
  0x3d5e8cbf3d2cbc49U, 0xbe3897ecbdcb3c42U, 0x3dbb16de3e093bc5U, 0xbe0ee91dbc827420U,
  0xbd01cd9cbe07cd18U, 0xbd6818a6be1ee1f6U, 0xbd3412ebbe53834fU, 0xbe413ad13de5f11bU,
  0x3e749116be424111U, 0xbe7eba80bdccc802U, 0x3ebeb96ebd6f49a4U, 0xbe97b3353e85e45cU,
  0x3e40a7ddbe2f6b9fU, 0xbec87a093e54738dU, 0x3e990bccbec76d06U, 0xbe8d43c13ec48956U,
  0x3ed4956fbe398404U, 0xbe725f333e8fe94cU, 0x3ea7bf51be42e915U, 0xbef2540f3ece2001U,
  0x3ee84d51be88e108U, 0xbe4576ab3e242dd9U, 0x3ee80bdbbeae03feU, 0xbe601fe83e8c8f7dU,
  0x3e7faa993f7ad7c2U, 0xbc0a3b14bef49727U, 0x3f318f3abea5d86cU, 0xbd990df43f221a2eU,
  0xbf918c01bed7b325U, 0xbdbc6e1b3ed48657U, 0x3e88e7173eae18e8U, 0x3e2cb38c3d98b9d5U,
  0xbd6fcb6c3dbf3ee1U, 0xbe2b76863d005ac2U, 0x3cdf08d93e49c9cdU, 0x3d92f84fbe0818dcU,
  0x3cf064133e88214eU, 0xbc5a12883d0f3c61U, 0xbcdcd8e53d367545U, 0xbe819e4f3e27be23U,
  0xbddd9d413dd009d2U, 0xbe41d58fbdac818bU, 0x3c218424bd681875U, 0x3ddf0d8ebd74dbe2U,
  0xbd283b1abd727f3aU, 0xbe2bfcccbe2b89d1U, 0x3e536ba5bd90e2d9U, 0x3e05d721bdbb94c5U,
  0xbca769ca3e1ba2c6U, 0x3e104d043b81ebe1U, 0xbd977339be271c01U, 0x3db56baa3db7ff72U,
  0x3dd7c8c1bd0c5971U, 0x3db6a325bdd3cc09U, 0x3e6637433e86cf24U, 0xbdf7a8e43d27928eU,
  0x3e90d511bd899492U, 0x3e1899753d964dffU, 0xbcac12fd3e2cac1bU, 0x3dc4d9acbe4da845U,
  0xbdc2bb42bdb7d892U, 0x3da0c483bea7fd2eU, 0xbe2d798d3de17ed9U, 0xbda4284ebe663537U,
  0xbd9fcab63e0be8a6U, 0x3e18c2c9bd766b45U, 0x3b09ffee3e3deafcU, 0xbd111013bdbd491aU,
  0x3d43d8993e0be120U, 0x3eaaa8b7be674588U, 0x3e75699bbd68b727U, 0x3dcba3bb3d2dcab0U,
  0x3e2c3b76be1bf954U, 0xbd8e0fdfb9c045cfU, 0xbec5e1efbd4e77b3U, 0x3ebdf848bd90daa2U,
  0x3da4823cbb5ce23eU, 0x3d096fbcbe8cb5a5U, 0x3e484bc5bd082538U, 0x3e11c070bdc2dcabU,
  0x3e8b3adc3e177310U, 0x3e9ed1c73d7c8645U, 0xbea183913b6a9a7aU, 0x3e4de73ebeb97d05U,
  0x3d03c50a3cd5a7cdU, 0x3ecd68c1bef31459U, 0x3c9e434ebdd38815U, 0xbe9df862bebabd5dU,
  0xbd6148edbd939044U, 0xbe6e8e463e313e8fU, 0x3d98eb4f3ed64b60U, 0xbd8bd696bec48583U,
  0xbe2f5b713e8bfcb9U, 0xbc297cd7be3b217bU, 0xbe1130263e669223U, 0xbd90ea10beccb183U,
  0x3e2a7b903d27239bU, 0xbe8f165abe9d9f08U, 0x3ecfa70f3e0ff303U, 0xbe4a481ebe69b6b7U,
  0x3e215fd13e38c26dU, 0x3ee0cc713dc36c84U, 0x3e9114113e856884U, 0x3e48d5c1bed980c0U,
  0x3d5317eebd0cac0cU, 0xbd9577c13d67ee72U, 0xbe34b230be483e33U, 0xbd77007dbd91764eU,
  0x3e793626bcca05ddU, 0x3d0594c3bdd9faa7U, 0xbd8986c5bcf81982U, 0x3d65b3183e9eda2bU,
  0xbbeb7ecd3dbb9337U, 0x3dedf6dfbba6e855U, 0x3df2f18d3cd05edcU, 0xbe81c60bbdbe0f7aU,
  0xbde8b617baa04834U, 0xbdefc6b43e1f37b0U, 0x3e37a54d3e4667abU, 0x3e1037bfbc915685U,
  0xbd336cc9bdcd47adU, 0x3e13601b3e17c7e7U, 0x3989df1f3d1e5b42U, 0xbde2d446bd4acdb1U,
  0xbc5e1fc2bc598cddU, 0xbd781140bd69eff1U, 0xbe93572cbe033417U, 0x3e28e812bd4cb217U,
  0x3eb549163d9f57b4U, 0x3d3e780ebddb12cbU, 0x3dbc3bd0bd95b516U, 0xbe8f6748bdf102f1U,
  0xbea68811be9f4a7eU, 0x3e031896bb36d03aU, 0xbe2e3a80bcff7086U, 0x3ec8831cbc293e52U,
  0x3e0fc5e5bdd314a0U, 0x3de047ea3d029e9dU, 0xbe80bc843def1fbdU, 0xba21ca323ded6da8U,
  0xbd675b51be671900U, 0xbdc6b5f9be15cc56U, 0x3dada5ecbe83f1fcU, 0xbe325a60be709accU,
  0xbe23bf703e8cbbccU, 0x3e3adb29bdbe4a94U, 0xbe8b123e3d34d653U, 0x3cdca490bdd27ef4U,
  0xbe774b7d3d61c9b6U, 0x3dff1689be38b639U, 0x3f0885d73e8f0cd4U, 0xbe046d36be92fbf9U,
  0x3c6898713e1e34cfU, 0x3d89ae22bcb20e2bU, 0xbe06561f3d459710U, 0x3e2203a8be50ae1bU,
  0xbe60bf003e7749faU, 0x3ea4a50dbeb441e3U, 0x3d9f5d9b3cd5ff19U, 0xbd1474e5be9b546bU,
  0xbe06f2ef3cb6223fU, 0x3e3c7975bea262e8U, 0xbcd5dffb3e1fe19eU, 0x3d92cfb1be697dcfU,
  0xbe21a98bbe1185b1U, 0x3e1f9063bea7fb49U, 0xbe2b04f1be82acaaU, 0x3e08861fbe2f3607U,
  0xbdccc6d4bd8b9197U, 0x3d0c4e85be7e1d24U, 0xbf365ee9bfe2ef7aU, 0xbde1258e3e80f800U,
  0xbf0f4cf7bd8e182eU, 0xbdbeedd5bef573aeU, 0x3f7a64d23f0c2590U, 0xbd69da1dbf77c4bfU,
  0x3c92a47dbeabead2U, 0x3d1c07313c81f9caU, 0xbe5936943c0b3f4cU, 0xbd75b3423cb9d3f9U,
  0x3d3e8072be6a09e0U, 0x3dca12bc3dd55380U, 0xbe58e098bca55422U, 0xbd498536bde96595U,
  0xbdd3cb58be24402eU, 0x3dfd9cb3bb98c800U, 0xbd9e16fa3de0dc36U, 0x3e934949bc43d339U,
  0x3d900887ba06ee53U, 0x3e9091a9bd6ef205U, 0x3d17d750bc46abf8U, 0xbd88b2143e07a259U,
  0xbc0194cd3d750748U, 0x3dd479983c608a38U, 0xbbfae4f7be59ea0eU, 0x3e18b1ac3d048e5dU,
  0x3c48bdb73e1832dbU, 0x3e003a94bdf63a22U, 0x3d82f705bdd34c68U, 0xbea347ca3d3eb93cU,
  0x3c8bd06b3e455fb8U, 0xbe251f913c8305d3U, 0x3ebd4f4eb96a6021U, 0x3d2a888f3e074f5aU,
  0xbccfe57dbd1170f0U, 0x3e0e8aae3e5a5090U, 0x3d61a830bd934065U, 0xbdee2cf5bd4b449dU,
  0xbe745156be4c7aa4U, 0x3e6ba82e3e4a5383U, 0x3ba73d34bd49450dU, 0xbd3de2213c5fc770U,
  0x3d5820753e65a436U, 0x3e1d97bb3e0118c4U, 0x3e271aa23d1e4b9bU, 0x3c1c306fbe18f5ceU,
  0xbde4e44fbe17c250U, 0xbddcc3d5bd2d1f02U, 0x3e2c76c13e16c43dU, 0x3b9cab33bcf6c847U,
  0xbdada45ebc4b53d0U, 0x3dd961c7bd9f3e2dU, 0x3d8781aa3d34e1bbU, 0xbe03fab7bcf447a4U,
  0x3bd31ba13d532799U, 0xbcf759f43dac3105U, 0x3e1e3742be9c8d8bU, 0xbb493e693de78480U,
  0xbe533d913c99cd0bU, 0x3de3bba93d2c6a10U, 0x3d5e125f3db9e492U, 0xbd9155913d24e41cU,
  0xbccbdcc03e508bd7U, 0x3d18f3a23e10f19aU, 0xbe5b1cd0bdf47788U, 0x3d3436493dee47b6U,
  0x3c822a573dced5b2U, 0x3cbab3e9be59af03U, 0x3c8429cabc6f5211U, 0xbdf566103e82eb0dU,
  0x3e2adcb03e3a2f05U, 0x3dfcfc95bea39aa3U, 0x3e21c2debceeffb7U, 0x3f0ca2cbbece7208U,
  0x3dec7497bfc64badU, 0x3edd97783eadcca2U, 0x3e003b23beb1f803U, 0xbee3222a3fa5dd8fU,
  0x3e7d0603bf988a73U, 0xbf04a8debad650c5U, 0xbceb9128bf52654fU, 0x3d3b31663d1a77c2U,
  0x3cdef362bbc1878cU, 0xbc169795bd280495U, 0xbbe463b23ce3746dU, 0x3ce73ef7be2823c5U,
  0xbcd3a7873c4a79c0U, 0xbd04c7af3d8cea27U, 0x3aff1eec3dd30f74U, 0xbdf5c59fbd18896aU,
  0x3dbcc995bd3f933bU, 0x3d8700753d06d078U, 0x3c12e3e33d7fa0eeU, 0xbd60474e3b275820U,
  0x3dc3b2553d15bf93U, 0xbd127a173da3eb83U, 0xbda2d28b3d92b5f4U, 0x3c842d13be10f236U,
  0xbde2b5033c3c1f6cU, 0xbd415de13d9758a1U, 0xbd1e200c3d5ab0b4U, 0xbc5e43ce3d564d76U,
  0x3e0b7a4f3cb4c085U, 0xbabb4123bcb7c066U, 0x3c45d3b7bce01152U, 0xbc98dd7abc148505U,
  0xbddfb6233d457249U, 0xbd015bfdbcee7fb7U, 0x3dbb48123cf50ea9U, 0xbc3ab74c3d18bb23U,
  0xb922421a3d9b0a1eU, 0x3dc27d1d3d01eb32U, 0x3dad56433d4d7411U, 0xbd88b211be0101d5U,
  0x3d85bf2dbc0db60fU, 0xbdbd7900bd3ce2c3U, 0xbcab97de3db976c2U, 0xbd7a2ff6bc88c227U,
  0x3c9407ecbc1cfa7cU, 0xbdebe1a03db500c4U, 0xbd73f53a3db63cb7U, 0xbd0a13b1bd0ea601U,
  0xbc9f84c2bd59402aU, 0x3cf0a2b33d41bfc2U, 0xbd1a79b2bcf7b2fcU, 0xbd932162bdc8fc0bU,
  0x3da5ef923cc1fb27U, 0xbde1fb83be0c8aaeU, 0xbd56952d3d4a63efU, 0xbde41a7abe1b0a2cU,
  0xbc99a254bdb6a572U, 0x3c917b49bd21dd76U, 0xbdc132a53e0d4c95U, 0xbd454882bde86bc7U,
  0x3c62c4e33cace482U, 0xbd420defbe10bb65U, 0xbd55b12cbc5d71c0U, 0xbcc239a2bce89340U,
  0x3dbc1fc83d5f4fdbU, 0xbc6eaf6ebe0d6210U, 0x3d5442383d553151U, 0xbe21fe82be20a89bU,
  0x3dc547123dbb0220U, 0xbd6bb7c8be035e3fU, 0x3d159d563d267a70U, 0xbce0f383be3b95d1U,
  0xbf8bca263eee60aaU, 0xbdb5e6bbbfb268d0U, 0x3f34f804bcf2ebd8U, 0xbd81c3a5bd8e49e7U,
  0xbfc1b68ebee3e162U, 0xbd1285373f48fa4dU, 0xbe9d202e3ef43d3dU, 0x3de1ba16bf227ae6U,
  0x3e2cb6e93edc2f5fU, 0x3d84d1ec3e014fc4U, 0xbddd80433c931714U, 0xbb011dcf3e238032U,
  0x3de6885d3d937aedU, 0xbd10a516bd9e2266U, 0xbe11c77d3e2d0f3cU, 0xbcd35345bd49e9f0U,
  0xbcdbdd833b2a7cf8U, 0x3dc169813cad054fU, 0x3ea74c5e3d63c73aU, 0xbde4459f3e8ee492U,
  0x3e104fb8bd0126afU, 0xbe062a50beaae186U, 0xbd0caa72bde34944U, 0x3db0c69e3c9171d2U,
  0x3d80c263be43daeeU, 0xbdd4924cbe7521acU, 0xbdeae4f7be2831c1U, 0x3c9e89bc3db7f7dcU,
  0xbdd918f03e8680a1U, 0x3e2588673d509668U, 0xbe8597a03e0bcaf0U, 0x3e0af62cbdefc5beU,
  0x3dfe8fa53d267166U, 0x3d07196e3d3bfcc7U, 0x3e04d5a23e1024b8U, 0xbe0e2b8d3d6d7b3dU,
  0xbe4fdcf93d69d6cdU, 0xbb8d5d433e75bb93U, 0xbd95d64d3e097f3cU, 0xbdb0f76fba8e9fcbU,
  0xbcd789cc3e811bb1U, 0xbc32c932bda64c83U, 0xbe2bd38dbda6b16eU, 0xbc48c2d2bdcabeb4U,
  0xbd64071a3d5cfc39U, 0xbde97568be48c440U, 0x3aed79a23dee91b6U, 0xbe6ba931be0ced80U,
  0x3e1619bb3e260ba3U, 0x3d6c1ca53db3dbb3U, 0x3d9713a03e72407aU, 0xbe024747bc3ab930U,
  0x3db9f56d3ddb2cf5U, 0x3d4ece803ad32938U, 0xbeb6c4d03d265c14U, 0x3d63d84ebe8e802cU,
  0xbe4d9b273e5309d2U, 0xbc840b083b6cc320U, 0x3e6273703e336db3U, 0xbe461a0cbe880537U,
  0x3d8afcc93eb9bbefU, 0xbd73d913be487cd9U, 0x3d5bb1a73e40c251U, 0xbb08bce6be63aceaU,
  0xbdb116963e8800ceU, 0x3e2244e1be68666cU, 0xbc9fd7863df87b11U, 0x3cc0a4d3beb64e18U,
  0x3b29f32e3e3a128eU, 0x3e0cddf6bea97dc7U, 0xbe080b353e87b02bU, 0x3cb2c0e1be8dfa31U,
  0xbd530d8c3ebe1751U, 0xbee7bc433f0914e9U, 0x3cd943253ff3ef8aU, 0x3f42343cbefa82c5U,
  0xbde56e233f018681U, 0xbf84eaad3e3ac1cfU, 0xbdef5133bd96e74cU, 0xbe8b36393f326b6cU,
  0xbdb3078f3f6a5cc2U, 0x3e88425e3ed59255U, 0x3e023967bddcdb4dU, 0xbe0ba20d3d858aadU,
  0x3e0c6eebbda6b2a4U, 0x3c36a154bdbc40c0U, 0x3e03564ebe225f6bU, 0xbd81ca3cbe195707U,
  0xbe5ad61e3dccb586U, 0x3d965278bd8baa1aU, 0xb994548cbdfe9a5dU, 0x3b700923bd6f0df4U,
  0xbcf78c593cdc92c5U, 0xbdcebdd7bca560a4U, 0xbe6f236dbe102523U, 0x3ce0e0b5bd6975f1U,
  0xbe38a214bdebae32U, 0xbd3e15c6bd809f78U, 0x3e29dcbdbdec3b69U, 0x3db381babdbd3964U,
  0x3db0db1fbcdf61adU, 0xbd66b153bd5df327U, 0x3dcf3edcbd1175ebU, 0x3c5c96733d164354U,
  0xbcb575afbd9dcae8U, 0xbc6e05bebd872b4aU, 0xbd1cdfcabcb72756U, 0x3e3ec38a3da8e919U,
  0xbc8ac750bd92ccd4U, 0xbdcd0141be440b0fU, 0x3deeb855be4a6254U, 0xbda76c5d3dae940bU,
  0x3db635bf3c0a5dfeU, 0xbd8a47f23d2d3a4bU, 0x3d759f953d229aa6U, 0xbc2c2369bd214356U,
  0x3de37991bba908b2U, 0x3e0d29fcbd9052aaU, 0xbd8a6fd6bcb271f6U, 0xbd2ff994bbfd056cU,
  0x3d93ff1dbd8cbd79U, 0x3d2fee853ca73d47U, 0x3db10ea43d5a01b6U, 0x3c7fc656bcac4375U,
  0x3da5b0ecbd71a200U, 0xbdb47b353d52654eU, 0x3d95950cbe281e7aU, 0xbd1d2bfebd131dd2U,
  0x3dd5a5993d7e72bfU, 0xbc182a933d46a00eU, 0x3ef73f22bdbede74U, 0x3d651aa2bdbe49d2U,
  0x3dbcf6f0be0ded14U, 0xbdd828163c81394aU, 0x3dca8aec3c4db479U, 0x3dcfa8533d765269U,
  0x3e77e556be59637fU, 0xbe3e2d753e23dc12U, 0x3e9ae450bd92c606U, 0xbe4540efbd6a06efU,
  0x3e6f6c28be7d1ee6U, 0xbe206c4d3ea8eb12U, 0x3e4ce3f9bdbd021cU, 0xbe12041c3de068fbU,
  0x3e1de52abe825de9U, 0xbe4e0c213dafeb32U, 0x3f2fafcebea8bca2U, 0x3c8bd958bf481e4fU,
  0xbe3b993a3e623773U, 0x3dddd5c13dd54830U, 0x3ef63e6f3f677eddU, 0x3da9c751bf9ae7fcU,
  0x3ec40711bea0bbd1U, 0xbec0c222bf015831U, 0xbe8bcad9be8cffe7U, 0xbe2bdf033e173409U,
  0x3dc353423d959fa0U, 0xbe05d9e73e01f1dcU, 0x3db829063dd1f95cU, 0xbd3e96913e67cd14U,
  0xbe176a9cbdf29dc4U, 0x3d82c67cbce874c4U, 0xbea3b1a13daee809U, 0xbd22a3e5be112697U,
  0xbe24d542bea285a8U, 0xbd4310f93dd99207U, 0xbe5a3e48be253fbaU, 0x3df30093bd99e4bdU,
  0xbe458ff83dfa7333U, 0xbdc99718be139dcbU, 0xbde271b63c3d52ffU, 0x3d1d5aeb3e140296U,
  0xbd5df1453cc9affcU, 0xbe19904ebd61a7f4U, 0x3de2f562bddd74dbU, 0xbe0b89ac3cb52908U,
  0xbdad9975bb82973dU, 0xbdfaf798bd1de24eU, 0x3d29810fbe55ef3cU, 0xbe58b35e3e30bf0bU,
  0x3d4495bebda861c7U, 0x3e87e8d5bc869cf0U, 0x3d69516fbda75f67U, 0x3dfb10493e1fd436U,
  0xbd1c6c18be9fe373U, 0x3d5334aabd218fbfU, 0x3e4262bbbd5d816eU, 0x3e2579d4bddaca69U,
  0xbc3283ea3d7b3148U, 0xbdd4c6fe3e11e425U, 0x3e8cfa5f3e20d1adU, 0x3d931a403e0c42daU,
  0xbe685ffabd82ca24U, 0xbdb838803d3ee72aU, 0xbd3a2a6cbdea8d12U, 0x3cb09bd03e2e03b2U,
  0x3e069d343d58d56fU, 0x3c64b90f3db94510U, 0xbd4e63d2be242fa8U, 0x3e2687b7bd61373eU,
  0x3b9235a2bd6684eaU, 0xbd9b48ae3c236d8cU, 0x3e0f06f2bde81a1bU, 0x3e30ee4a3c2f5204U,
  0xbd913885be3c2ab5U, 0x3e1bb3d93e833fecU, 0xbd381141be7b1442U, 0x3d863a853eaba26eU,
  0xbc386a0dbe153b81U, 0x3e3926333e30bdc6U, 0xbe5ec198be826a66U, 0x3d261c893e0127feU,
  0x3e10cc38bea71bb7U, 0x3a48fdc13ecfeeb6U, 0xbe15e658bed3ce9fU, 0x3ded56723ecfddaeU,
  0xbdee8436be1b8ea4U, 0x3e05a8023e7e5bbcU, 0x3dc81338be6a0d65U, 0x3fdb5a273f06defeU,
  0x3cefd88dbfff963bU, 0xbec085ee3eb3f673U, 0x3e91ffdebf03f64dU, 0x3e95966c3e568e32U,
  0x3e0a943dbe48cb0aU, 0x3e56519dbe995667U, 0xbda78ebabf2444c6U, 0xbf100972bd264f1cU,
  0xbd5b87ea3d476822U, 0xbdbad4bbbdf9480dU, 0x3e1b8f083c948a25U, 0xbd0fe3b83dbf23c5U,
  0x3d2367233d1f7f32U, 0xbe9622833d88ea0dU, 0x3d780ccebd75ad35U, 0x3e973878bdb65603U,
  0x3d6af95fbda405c8U, 0xbd3ef7973c05ea9fU, 0xbd8bd400bd0dcc5cU, 0xbda0fceb3e31c532U,
  0x3e06d252be21427bU, 0x3ba907d6be16c6ecU, 0x3d3d6a323dad9ee3U, 0xba16431bbe54208eU,
  0xbd406511bd9190d8U, 0x3d599e9d3e06641eU, 0xbe266b6ebca470a4U, 0x3b8ad924bce5ada3U,
  0x3d186b393da2db23U, 0xbd97665cbd01dd04U, 0xbd5fa1c73d6567c9U, 0xbc7b063e3e5a0114U,
  0x3e23bd38bd697be2U, 0xbcb63b6a3e502946U, 0x3c1078b1bcb0afccU, 0xbe816f303dcd43c4U,
  0x3da61277bd0cceddU, 0xbddd9d42bcdd30a0U, 0xbd15c88d3e0b86a5U, 0xbdecc61d3de59e59U,
  0xbd2540fc3ead9ef2U, 0xbddc9c8cbe706fb1U, 0xbe07b4ccbdfc0c4cU, 0x3e2f7c843cbb0873U,
  0x3abd3119bd3de700U, 0xbe29a4fd3c0f55c9U, 0xbcc5a2003dda36cdU, 0xbcb92a313e0f3081U,
  0x3d4069323e21e609U, 0x3e57e062be0b37beU, 0xbcfcbb343d8b2421U, 0x3cce62643ccbb7a5U,
  0x3dd38a20bc12402aU, 0x3e25343abd147ea6U, 0xbdb905dd3def1de1U, 0xbd611447be563d1bU,
  0xbca409e6be33d20fU, 0x3d821a093de862b6U, 0xbd9bc6f73e2274d3U, 0x3d08f6cf3d50fd1cU,
  0xbd94afc63eae3d6eU, 0xbe81bb56bda8ae30U, 0x3e361ec83d8bf4c3U, 0x3b29148f3bb53e1cU,
  0xbc38f6383e2bd0faU, 0xbdfea1a9bd8ecf3cU, 0xbe13586e3e1784e9U, 0xbdd2887b3b00f5edU,
  0xbbca1cba3d8b26acU, 0xbde91dd7bdc674ebU, 0xbe7810233e94dba1U, 0x3d556e723d32b637U,
  0xbe5ce47b3f947691U, 0x3cfe34ef3f90ad43U, 0xbce9ab8ebf15aa0eU, 0x3be5794d3f471bdcU,
  0x3e3b5c653e5e6eb9U, 0x3e69dad1bd0a9ff3U, 0xbf125a933f5189f6U, 0x3d8a998dbe565262U,
  0xbce5bf9f3d800d0dU, 0x3e0446793e072379U, 0xbd97d8253d09674cU, 0xbd5a48c53dbb725bU,
  0xbdb5f2d1bd481abbU, 0xbdd3b74e3ccb378aU, 0xbc04f01d3e3b50b2U, 0xbe6021eb3dcee962U,
  0xbdb45491bc31ded1U, 0x3e3fc2adbd79f78bU, 0x3c539edc3cfbb79bU, 0xbcd415a3bdafb072U,
  0xbc83bfd5bdc3b581U, 0x3d3f781d3e34099dU, 0x3d93744ebdc83f6dU, 0xbe0c39213d820d41U,
  0xbc137db03d8fd6d3U, 0xbd14e721bcaac3fdU, 0xbc9ddade3c5d1b7fU, 0x3c67b37cbe260a51U,
  0x3daa59063e1da21eU, 0x3e34894bbc3c2a3bU, 0xbd2c96263d8cf346U, 0x3da914eb3dd2fb32U,
  0xbe0d8e0dbdbde787U, 0x3de3d297bdb411a9U, 0xbd8640d9be1e982bU, 0xba26018cbe23b36bU,
  0x3e196d1abd55be6cU, 0x3d90907b3d622193U, 0x3d57f9123ca04f06U, 0x3d33ddf2bdb6126aU,
  0x3d0293b3be3bf069U, 0xbcd5ef35be0db6c6U, 0x3b9ade4fbe39815fU, 0x3e2441473dbdf3c6U,
  0x3d0db8c6bca0d4f6U, 0xbd19b256bd2f69a7U, 0xbd3bd0e63e0cc108U, 0xbca14e70bcef740dU,
  0xbd8860c7bd7ab228U, 0xbe151f6cbdb083b0U, 0xbdb5f7bb3d83ddaaU, 0xbe32041abe36d4e1U,
  0x3abb2ec3bd653f92U, 0x3d97ee8abcb114b3U, 0xbdba4f5abd966cfcU, 0x3e30c864bbf94260U,
  0xbddadd173dce0ba8U, 0x3dcd759b3b9c5f67U, 0x3d6afe6abdf456dbU, 0x3d244e6cbe192dd8U,
  0x3d349fb7bcc2e2a2U, 0xbe384249be84e856U, 0xbddbf4b1bdd8763cU, 0xbe55d931bdb16c11U,
  0x3d5f5a293cdbc6deU, 0x3e1c89e1bdaaef7bU, 0xbc85c240be0c4ef2U, 0xbcd6fcedbd68fe3cU,
  0x3df8a91cbe150460U, 0xbda78e38bdc88c1cU, 0xbd4fa280bda2c0b3U, 0x3d2c9310bddaafd4U,
  0x3de425793e064ae2U, 0xbf95ab17bfb08292U, 0x3db3aa63bfa14923U, 0xbe2d79e73f0f104eU,
  0x3d0d2deebf29374dU, 0x3e33c4fa3e57b1edU, 0x3d981deabed2051fU, 0xbd8e7af8bf0e8404U,
  0xbe05068fbf0159d3U, 0xbdc2f805bce365b1U, 0x3de99b56bd30fef5U, 0x3c3b05a8bdee620dU,
  0xbea7e5303ed04999U, 0xbd829f623e2f8116U, 0x3df40d6fbc78ef66U, 0xbd4c9f8d3e52c661U,
  0xbded3df6bc499c34U, 0xbeca3eed3e0ae88bU, 0xbe2684f93c91c33cU, 0x3e3d9ce83cd6e1efU,
  0xbd7bdb4a3d9a14edU, 0x3e1d8f79be28e0b4U, 0x3e15a1103dfd57a0U, 0xbd28b197bc68ba58U,
  0xbdc75b8d3d812753U, 0x3b54390e3c04771cU, 0x3da0f35c3e6dbbaaU, 0xbd5c23b6be26c329U,
  0x3dce3093ba3e1bb9U, 0xbdfce2b2bb94d0a8U, 0xbde2cb13be34ee26U, 0xbe2784dc3e2d1d0fU,
  0x3e4d5251bd8f2f3dU, 0xbdd1e3da3e14ee58U, 0x3c2165e2bcdb8adbU, 0xbd9ce0e73d3961ffU,
  0xbe95452ebdd40c94U, 0x3e125cfc3e584d86U, 0x3e07ff4cbd986489U, 0xbe237d7a3db338cdU,
  0x3d4fee963e323f3eU, 0x3db4c122bdb41cd8U, 0xbd45eeae3d614265U, 0xbe49132e3d2c2947U,
  0xbe2bf3bfbd94d67dU, 0xbe6c782d3e0ab809U, 0xbd9b0df93dfc03a4U, 0x3d5524283e38a24cU,
  0x3e1f55403e33e3a1U, 0xbe53ece23e36470bU, 0xbd2dfdfbbe34d8efU, 0x3e2e28433e19e9fdU,
  0xbe47b3f1be9184ffU, 0xbdb8f71d3e402785U, 0xbe0bfdea3e46b93bU, 0xbe1489fa3e01f486U,
  0xbe9e5c0e3e392b9cU, 0xbe6e57a53ead7c6fU, 0xbe084bfd3de5e151U, 0x3d94b6393ebea0caU,
  0x3dc225033e5451d0U, 0xbd888cfebdc1a8e5U, 0x3e33d939be4119b2U, 0xbd00d62cbe44ef22U,
  0xbdad83613e7dd84dU, 0xbdf541b03e263346U, 0xbca2f757be87b285U, 0x3e578dcb3dbe8eacU,
  0x3e55ee9f3e365b75U, 0x3e911998bda5dcabU, 0xbcce0278bcf5f142U, 0xbe21a9493e1a127aU,
  0xbe84fe873d45c5acU, 0x3c5f7d25bd2847afU, 0xbf4c507cbff86eb1U, 0x3e11b4523fc5d40eU,
  0x3f1f41a9be9e9a0fU, 0x3e03d1783e71dbd0U, 0x3f7da3a63dc16db2U, 0x3e4123b23f83886aU,
  0xbf82455cbedd7095U, 0x3c8a0bdf3eb3a167U, 0x3e4c8263be40e79fU, 0xbd453aa33be5a1adU,
  0x3d79a6863d3b17cdU, 0xbcd610aabc98d5e4U, 0x3dbcabae3d179bcfU, 0x3c982ef8bc1bcb9fU,
  0xbdf41ef3bdfc2102U, 0xbd3202083d03b1dcU, 0x3e22338c3d28529fU, 0x3e1c38adbd525f40U,
  0xbcd48e2f3e03f274U, 0x3b33681fbdfb2d0fU, 0x3d1a3caabb8a858aU, 0x3d3ede6ebd0111b2U,
  0x3d8f3ee43d1a3ceeU, 0x3dac16953cf1787cU, 0x3cda0bebbc08f51fU, 0x3e1017a6bdb5ebd0U,
  0xbcde874dbc3456e9U, 0x3c81ffeabd7a8f23U, 0x3da710f6bcf42a0aU, 0xbc957834bdc36481U,
  0x3d33d1263e0fabbfU, 0xbdefa4593d684110U, 0xbc3a8c563e024a32U, 0x3c2cd8f4bda13d7aU,
  0x3dc8550ebdaeb59bU, 0x3d896581bdb5f715U, 0x3d73ec14bce2ea0bU, 0xbd1c3b3c3ddccd56U,
  0x3ce0571e3c81b74fU, 0xbd8607983ce4d8c4U, 0x3d5437e73d690046U, 0xbd53ee643c1da126U,
  0x3e3b27403b9df693U, 0xbcbec6163d2202d6U, 0x3dc8f47abc60d22fU, 0xbdb10b053ddd7428U,
  0xbd59c8e33caa5265U, 0xbd7f9c0e3d1fe4aeU, 0x3b922a803b1d5751U, 0x3d49531abd02eb55U,
  0x3c231657bd98dc18U, 0xbd0e63323df28fb7U, 0x3c883e4cbdbe4a66U, 0xbdf849733c7a7600U,
  0x3d8fb7febd05c1b7U, 0xbc35dcf2bd21beb4U, 0x3e142311bd9f9246U, 0xba901a9a3d95f0a5U,
  0x3d17f1583d58be05U, 0x3d1e69c33c120adaU, 0x3cc138fcbd02900aU, 0xbde5ec383d13c059U,
  0x3e25d0c83b14cbc1U, 0xbcad76a53db27d7aU, 0x3d766e0bbe75359aU, 0xbdd8648d3e05892bU,
  0x3dae0276bddec8bcU, 0xbe2ec0113d6b9e44U, 0x3e73f00ebd336229U, 0xbda9a57dbd511856U,
  0x3e5e2075be158c29U, 0xbdb463223d82915aU, 0x3e86a42ebe2148ceU, 0xbf1b7ccabf6e21d1U,
  0x3da16a2f3f0359b5U, 0xbf8c95433d8e63aeU, 0x3dca8827beb5a181U, 0x3fc9ccbabeb01dbeU,
  0x3e0ffda23f19a946U, 0xbf37cf90bf477dc5U, 0x3e2c7a0ebedbc158U, 0xbed7e8dabedc1587U,
  0xbe8f650ebe64c9a2U, 0x3e03f8d8be93debcU, 0xbe5e7b253ce78caaU, 0x3d9a7d313e55397bU,
  0xbec6237f3cd224a5U, 0x3cf42f613e9f1963U, 0x3db44d3e3ea4c150U, 0xbe40914fbcdd27b9U,
  0xbdd84f8b3c0cf78bU, 0x3d507110be2456deU, 0xbe08d90a3d854ed9U, 0x3db8e8ecbdbcf261U,
  0xbdeb252d3e5e9c9bU, 0x3eb0d927bcfc00e6U, 0xbeb7d9d93e36d159U, 0x3c530d9fbdb99ad7U,
  0xbda963bfbcbb5e76U, 0x3d93ddca3e7b5792U, 0x3dd28dfa3e9c38c3U, 0xbd8f4f4cbb90d3dcU,
  0xbe31dacfbde4ab79U, 0x3da527f3bdf37d19U, 0xbddacaab3c3b7170U, 0x3ec06457bc92328dU,
  0x3dc464463dd55f80U, 0x3e3825a8bda1138fU, 0x3e3b041d3e1631c4U, 0x3d6ff8e5be1b8869U,
  0xbcc2b0453d46744dU, 0xbc8e8ce73e6f4c8aU, 0x3d6c1b4c3e6bfd50U, 0xbe4cb64a3b87c7dbU,
  0xbcd295763e14a571U, 0xbcd6d360bdae2773U, 0xbe096ba13e349314U, 0x3e4c76a6bdaa7eedU,
  0xbd6602c7bdf5d05fU, 0x3cd22ee83bef97aeU, 0x3e220e793e0f3bd0U, 0xbce98481bdfaa0f3U,
  0xbe3ee2d63e922b23U, 0x3d2cbbb73e515abfU, 0xbd87f09e3e37e9b0U, 0x3e975afabe1d4d92U,
  0xbe43f6753dcc21b7U, 0x3e1bff673d3b8bb3U, 0xbe9e560f3d93dc71U, 0xbd8389d8beb47829U,
  0xbe6d11693ea44cbcU, 0xbe1057bcbe9e7c3bU, 0xbdafcb093db31353U, 0x3ea3157ebde0f938U,
  0xbdfac6093e18208bU, 0x3e10b120bd51f4a2U, 0xbe2068223dad2bc6U, 0x3ed0bce3be1f0d53U,
  0xbe4df9063e14b0c6U, 0x3e3d328c3cdc896cU, 0xbef60a143e986190U, 0x3ea79df4bdfeaef7U,
  0xbe7381b63e197d6eU, 0x3eae7310be9024cdU, 0xbe8290743c71bbd2U, 0x3e70063cbe13f0a2U,
  0x3edcb9533faaf65aU, 0xbdff88b6bfe477d5U, 0x3f3c69f0bca23196U, 0xbdd7755b3f2a9999U,
  0xbf9bb1b1be2ff24cU, 0xbe524602beb4d145U, 0x3f331b283f96a974U, 0xbc6b0d4abf18babeU,
  0x3d0de6043d3adc12U, 0xbd8273bbbd3f072aU, 0x3b3759e2be0b3243U, 0xbdbcc2d9bd4741fdU,
  0xbc3bd5643b4c05e7U, 0xbe36df7a3d587b32U, 0xbdf363dcbb1925b1U, 0xbcad951c3d3f8e73U,
  0x3d902bc6bd0c27a5U, 0x3de0233fbdc12f83U, 0xbd0346c8bdada6feU, 0x3dd1a60dbd214282U,
  0xbd08a0fa3cd2065bU, 0xbbeba98ebd38b7a2U, 0xbd0614ccbdd2debaU, 0xbd44e2d23d879bc7U,
  0x3bfbb0fd3ca60f29U, 0xbd803d7d3c4fe20fU, 0xbb90ddd3bd893f3bU, 0xbcf6b8bcbdcf9c3dU,
  0x3d2ae1c4bbb51c33U, 0x3d967dccbccb4924U, 0xbe2a644ebd234587U, 0x3d62ebffbcb071f8U,
  0xbd97c8d5bcdf64f9U, 0x3c0ca513bbbef528U, 0x3d7d4fc53d56aea7U, 0x3cc09bc4bdcd66c5U,
  0x3d38ccb8bd8872fdU, 0x3d67b39bbb20ef24U, 0x3da461873a3af0c6U, 0x3d82f594bd98aa60U,
  0xbd1040d8bdbb09c5U, 0xbd16e016bce5df4cU, 0x3c9cae4e3d65684fU, 0x3d99f43bbd8609c7U,
  0x3d4eac6ebc9427fbU, 0x3bda6a05bd8b6bddU, 0xbcb4d5b5bac9bd04U, 0xbc9fbfd9bdd566aaU,
  0xbd0bc6a1bca868a8U, 0xbc33468cbd4ad2b9U, 0x3b578da7bd9e8eeeU, 0x3daf0126bc3a14a2U,
  0x3dfd2565bc2285a2U, 0xbdbfc048be1cd78cU, 0x3d546450bcf974dfU, 0x3cec6efbbdcbee10U,
  0x3c30c5e53cb07620U, 0xba12165ebdbf3b2fU, 0x3da003bebc4a8bb8U, 0xbc6dc5fbbd97de58U,
  0x3d9aadd3bdcce01cU, 0x3cae886bbe2a86acU, 0x3c240f38bd6ba386U, 0x3c07ce4abd934684U,
  0xbd3c44d23cab5e09U, 0x3bd82e5fbe51aa53U, 0x3dacab43bd68cebcU, 0x3c535d1ebe3737c1U,
  0x3ca40d88bd07d075U, 0xbe0bba6bbe4f253dU, 0x3c3e631a3dc49fa3U, 0xbd965da7be778782U,
  0x3d0e9dfc3ca96c2cU, 0x3f5f14803f1ac094U, 0xbe1c3d9f3f7c39c5U, 0xbe48a7b8be53071fU,
  0xbe3158613f0a50a4U, 0xbe2ca3c83ee1bdedU, 0xbdc320f9bf5a82c0U, 0x3ed685eb3ebf00b6U,
  0xbc16b5843eac6382U, 0xbea5ef77bd2c0733U, 0xbe1338203d78b44dU, 0xbcbf2251be4da575U,
  0xbe83d7af3e4b50dfU, 0xbd87cd41be0f79baU, 0xbf06316dbd374ffbU, 0xbe9ac1eb3d06f407U,
  0x3ce32e7b3dce4565U, 0xbe5c0d3ebe97b9e6U, 0x3e72bf06beca627fU, 0xbea6cf0c3e4a9eafU,
  0xbe22f3f43d8c81b2U, 0xbcb2c8a1be5bf781U, 0x3e6d5e7d3c4f74d5U, 0xbecd9ec23e05b8efU,
  0xbe907a20bc043cffU, 0x3d17fe82beb5dd38U, 0x3bf50c6d3e67d496U, 0xbd8ac0713e306e92U,
  0x3e373b97bda509f7U, 0xbdd9c4723da968ffU, 0x3e852fe2be035628U, 0xbd469a743ca438e0U,
  0x3dea3881be622722U, 0xbe35c58c3d1f3d05U, 0xbe0a59893d8baf9cU, 0x3e404d18bc277bf3U,
  0x3dfddc60bbaa6115U, 0xbda5f8243ee2b599U, 0xbdd51c853edcda51U, 0x3eb97a843e6124d4U,
  0xbdb0750c3e858d2cU, 0x3e26d3153cf30dcaU, 0x3d335e773d85964fU, 0xbe59f600bbb2a7c1U,
  0xbe0ff1fe3e71ebeeU, 0x3e4518c1bd18bbaaU, 0x3d3f7e033ea7e61bU, 0xbd4467703e48e067U,
  0xbe549fcebdc47d59U, 0x3c63ea963e38003cU, 0xbe4023eabd60c84cU, 0xbdc1122abe8061ecU,
  0x3e6ca40b3e633de4U, 0xbe6218d43e85e55cU, 0xbea172e43c940ab6U, 0x3d9f1ce23d92b849U,
  0xbe388fbf3ca63723U, 0xbea38b373e779ef6U, 0xbe2c95b4be014f08U, 0xbd56fa97bc9e7527U,
  0x3cf06a703ed12ac0U, 0x3ed8a1ffbe25d5cbU, 0xbd03be763dbe3104U, 0x3df1e1563d50f16eU,
  0xbecafa73bdf83fdfU, 0x3e7501373e80747bU, 0xbe889ea9bc5e5c06U, 0xbe2d2bb13e98d83dU,
  0xbddd891d3ea99b52U, 0x3e61e2bf3d37b620U, 0x3e44173ebb1b4f61U, 0xbde5bc25bd9c4433U,
  0xbe9d0f383f2adfa2U, 0x3eb13b91be0ec371U, 0xbfdf8a93400548e4U, 0x3ec67f123f479fafU,
  0x3e819ca6be170195U, 0x3eea62d6bea380b6U, 0xbf6e7ab23e8079b3U, 0x3f0b60d8bf4c5ef0U,
  0x3e58deb03f60a2f7U, 0xbdfb586cbe529cc9U, 0xbd5401383dc60c83U, 0x39e921253c4fa126U,
  0xbd9bde193d1d0cbeU, 0x3d1bc8cbbcb62579U, 0xbd05510f3cf6944bU, 0xbd7d8ceb3c17dd75U,
  0x3cb40fc13d8a3a7cU, 0x3d37082fbc992f2cU, 0xbd9175f23dd00179U, 0x3b9886cfb848ab9fU,
  0x3b4b5ba7bdc1e1c9U, 0xbce404673d192a35U, 0x3a97e8fc3d131f91U, 0x3d6e3f49bd1aafddU,
  0xbd5b78febc1993ffU, 0xbd8362533d22e1daU, 0xbd4cd4003cc88b34U, 0x3cba736e3c911e4eU,
  0x3c015f423d089797U, 0xbc5d463dbcf64d57U, 0xbc7244953d4367a3U, 0xbd1db1133c13a2c2U,
  0xbcec327a3b76013aU, 0xbc4c7b2d3a4413d2U, 0xbd95c3203c8d30f0U, 0xbccc5bdf3c7be6f5U,
  0xbc4b2a673d0be1e7U, 0x3d4e28e93bb27d5eU, 0xbd1a4855bcb0911eU, 0xbcb139c6bc4cad4dU,
  0xbd4de96dbd4a4b9bU, 0x3d3eaae73cfc1bf7U, 0xbdcda72ebd91e692U, 0xbc2b9e5ebd07614dU,
  0xbd67ad08bc040ce8U, 0x3ba0afca3cd6f085U, 0xbdba13df3ce7f866U, 0x3d0e8711bd2b06b4U,
  0xbd97fed7bd49b6e5U, 0x3c9c93f4bcad29a9U, 0xbd551f78bc056e35U, 0x3c1288203d1c0c4eU,
  0xbd3b2c293c90b4a9U, 0x3d0848273cde8f88U, 0xbba824c13a4fbdc3U, 0x3d7a1e2339ddc078U,
  0xbdbc6b523c63cdb4U, 0x3d7ab1e93d5ec7adU, 0xbd283961bd7c6baaU, 0x3cfb5d563d3c8b38U,
  0xbc5328f8bb1b6140U, 0x3dddf9253cf534aaU, 0xbd161141bc850fa4U, 0x3cc77b4f3bda4c09U,
  0xbc56c2dabcb55914U, 0x3d8e8a1a3d9e82fbU, 0xbb598bf83cf1d288U, 0x3d97530b3d172d86U,
  0xbcf0057ebd198ef1U, 0x3dd148203d5e11dcU, 0xbda7cd833be98da4U, 0x3dd0f8393d387bdbU,
  0xbda01bae3c686620U, 0x3e2c99aebb830b3eU, 0xbdd3a6a1bc2dc863U, 0xbef666f0bf1b7ba3U,
  0x3eb158323ea14cc2U, 0xbc9af3a6bee8cf24U, 0x3eadedd23f228d3fU, 0x3e938cf23e041ae6U,
  0x3ecbcd643c35edd2U, 0xbee11fc7bec9a378U, 0x3d5649c2be93e560U, 0x3e18086b3bf16649U,
  0x3b8e97c63c8cfa76U, 0x3d62cc3f3e3f495cU, 0x3d43ce873dcb94bcU, 0xbebb70ba3bce8452U,
  0xbcd982333e1a3352U, 0xbda020c53e20930fU, 0xbdde8d073d56db59U, 0xbe95eb55bd919359U,
  0x3e43a1d73dc0b6ebU, 0xbe784f1c3deb60a1U, 0xbe4e943abe4b54bcU, 0xbe0d10d9bcd48d60U,
  0xbd291246bd4f0f4bU, 0x3ea0e076bdf06688U, 0x3d3d08013e18ccb3U, 0x3c954425bd8ed7dfU,
  0xbe1169ca3d11ad37U, 0x3e496ac7be834d62U, 0x3eeeb832bced1e95U, 0x3da19e90be17b1d1U,
  0xbe1124823d8d6a58U, 0x3ebd4a35bedee294U, 0xbe6511673d2698caU, 0x3e0ebaffbdd15670U,
  0x3cab889e3dd85b86U, 0xbe3bf391bddd3266U, 0xbe7cb1c63e9e2677U, 0x3eb14a513b0f53ecU,
  0x3e79c162bd706591U, 0x3da7d1983d695809U, 0x3e7bdfea3e794fb2U, 0xbe8e6c03bdb7b772U,
  0xbc3088b9bce73952U, 0xbda6b7303e317434U, 0x3dd9d494bed6d2f8U, 0xbea0a88ebebcde85U,
  0x3d411e8dbeb1d23eU, 0xbe8d90a9bd0dd881U, 0x3dfe011c3dee8933U, 0xbe1bda313da1edddU,
  0x3e11236bbd8fe2ccU, 0x3eafaaf3bd024dd4U, 0xbe7ea22d3dc7f530U, 0x3ef4d1ad3de60257U,
  0x3cb1ccdfbe8e818cU, 0xbe4efe15bea8d0a3U, 0x3e27aa6d3e613c89U, 0x3e6d8a00be057687U,
  0x3cff6aacbeb55070U, 0xbe673b5dbe793718U, 0xbddcdf50be54f242U, 0xbe5b4b3bbe9b728dU,
  0x3f245c10be084072U, 0x3ccd43663de5f8c9U, 0xbca353ba3ce88e79U, 0xbca2a756be0d6663U,
  0xbeb2eab63dfdf659U, 0x3ef6913b3cd39d98U, 0xbe2d490bbcd6c067U, 0xbe7a4cb2be1b44ceU,
  0x3939dd52bdf8c943U, 0x3cde37143e25bc93U, 0xbe8db0d13d673955U, 0xbdd3de08be037518U,
  0x3f60a4973e775d6cU, 0xbdaeb048c008dea0U, 0xbd9c48d93b721b76U, 0xbd302d61bd9fd7bfU,
  0xbe49f35e3d4b726fU, 0xbe682460bf9bb93dU, 0x3ef10ca23b6ade64U, 0xbc9e5771bf96f7cdU,
  0xbcf8463bbccabfa7U, 0xbce9d2e93beec912U, 0xbc59eaf33d041493U, 0x3cf12e493cf220d7U,
  0xbce4fa7bbcfd2ce0U, 0xbc6f481c3cf1806fU, 0xbd69cfd3bd5b56b0U, 0x3ca2bec2bd13952eU,
  0xbb983aa43d138fe4U, 0x3d9c87eebd5c5496U, 0x3cca44c63d3af891U, 0x3cd280503c994ca3U,
  0x3cd9dba03c8f1a1aU, 0x3d83274abc6d81afU, 0x3bda6b993cb23556U, 0x3be986063cca88b1U,
  0xbd8356c0bcd84dabU, 0x3d919e8b3cb9cec5U, 0xbd00c9cc3c8d8a1bU, 0x3c4cf39abd2d0dedU,
  0xbd1932313b87f721U, 0x3d7a3f0fbca70c03U, 0xbd0bd5c83ca45559U, 0xba2249473cdf3499U,
  0xbd09a35f3bbd21cdU, 0x3cab38eabd063891U, 0xbd2236513c18cd56U, 0x3d4819f8bbcd0f88U,
  0xbd7379983cf453b6U, 0x3cdd5a15bb559872U, 0xbda78e4e3cb16627U, 0x3d0b95753c7ec1cdU,
  0xbd128b80bc171c55U, 0x3d48522c3c3d7a2eU, 0xbd979e193cc000d0U, 0x3d6f5f5bbc849a2cU,
  0xbdb059adbca76ba9U, 0x3d2f6b35bc37a300U, 0xbdf36e64bd63a6aaU, 0x3cf255d5bc4f1983U,
  0xbe20ec10bcfdd76aU, 0x3cfa5c7dbd5aa9c1U, 0xbde11481bd3a9a90U, 0x3d816dc4bcac55f4U,
  0xbdc23cc3bca7b3b7U, 0x3cb38ccc3c84a105U, 0xbe0fe73cbd13b45dU, 0x3d243dd0b99f1642U,
  0xbdd98abcbd04239dU, 0x3d21d0c0bd22e7d4U, 0xbda62aacbd532984U, 0x3cfba2ffbd0d667eU,
  0xbdba0c89bbd2cf2aU, 0x3d30ca3a3bab71feU, 0xbdf00328bd211f5fU, 0x3c51cf983ce6dc1aU,
  0xbdae3212bdacca7bU, 0x3cbb5b9abb489f4eU, 0xbdd8ba79bd649781U, 0x3b9793fb3c12b11cU,
  0xbd8d8b8fbd1e2c77U, 0x3cab75cb3cf12ed5U, 0xbdf45eccbd9900bfU, 0x3cee51f63d847193U,
  0xbd704ee6bd9760c7U, 0x3d2a2fe73ec60a37U, 0xbdd8448c3f8b8f29U, 0x3f4a6baa3efdd6ceU,
  0xbd249038bf3eb42fU, 0xbf89f31ebd1c9bc6U, 0xbe07fe143e811ff4U, 0x3e7d21143f1d1563U,
  0x3ddca07d3f68d163U, 0xbf09ba603ed997c8U, 0xbe975e2fbe57f471U, 0x3ca33be13ed413daU,
  0xbda4725ebe071154U, 0xbe8c66e33d99a789U, 0xbe7060cfbc80cdfbU, 0xbde687ae3dc8c1f5U,
  0xbd3c551cbe1848c5U, 0x3bb8be0fbde22b0dU, 0x3d9a477b3d1e7878U, 0xbdbc08b5be2d3c94U,
  0xbdd6e6153cd6f8d7U, 0xbe1ae7183d5e5a73U, 0xbd6fa479bd91315eU, 0xbd54c4d33c0c8020U,
  0x3d18ebc2bdea739cU, 0xbc1e3b97bc4f51deU, 0xbe44d07ebcfe6d78U, 0xbe4ace1dbdf5870bU,
  0x3d0bf458be242891U, 0x3e0288aa3d9c7a5bU, 0xbe657357bda4190fU, 0xbe8b8d003defacc8U,
  0xbcd28bce3d8cadd8U, 0x3daba3bc3d7d3c68U, 0xbdb6af4bbd83e17eU, 0x3b91e7883d5cc248U,
  0xbdc701333d43a413U, 0xbe883fbf3e5f1dc9U, 0x3ca7a7df3d8cecb3U, 0xbe0721bf3d53ca3dU,
  0x3dd4453e3d75e5d6U, 0x3d94eba33ea17394U, 0xbd6f91613dab9305U, 0xbc99fc313da24904U,
  0x3dc861c0be44750bU, 0x3dac499cbe2dd191U, 0xbdc2650bbdf53c6cU, 0xbd10445a3c6bafb8U,
  0x3e446a513d8ad57cU, 0x3e6c51463d052be4U, 0x3e0e77e03e25f354U, 0xbe8153963e3f0f59U,
  0x3e018952bdbf5a95U, 0xbdb230f73ec498b8U, 0x3d830bc53e2550fdU, 0xbec578b43e7b538bU,
  0xbe00fe08bdbe4268U, 0xbd5439d93d741c7aU, 0x3e8ff078bd4e5bfaU, 0xbc7cbafe3e626851U,
  0x3e80ecfcbe9416b6U, 0xbdca78b03b6a6ddbU, 0x3cb9c3e9be5b4e1bU, 0xbe52949b3e4ff930U,
  0x3e0dbe523d210c63U, 0xbd79572a3d5ed71cU, 0x3c871df2bc692b74U, 0xbe3422df3ebab1f9U,
  0x3da0af67be886874U, 0xbe2558a4bcba84a2U, 0x3e1630debe6bd914U, 0xbcb9df933edeb706U,
  0x3e27e6e3be6c8390U, 0xbdc330383ece8b9dU, 0x3e1f643e3f52662dU, 0x3ca900653e80983dU,
  0x3efc4c08be2ce73eU, 0x3ca428de3e9bea10U, 0xbf0585863f0bf4f0U, 0xbcf76773bf44e3bdU,
  0x3ea9d27b3ebe0227U, 0xbe9effe23e70e70aU, 0x3e447c88bd0ed515U, 0x3d8febc9be00c8f1U,
  0xbe12105fbe3f9f88U, 0xbdae67043d09549eU, 0xbd4ea363bda6173cU, 0x3d7aefc63dea52e3U,
  0x3c1d7784bd17ccf5U, 0xbdcc8674bde3ced8U, 0x3d896cae3de1ebc0U, 0x3dea94dcbd8da3a2U,
  0xbde5d012bd2121d7U, 0xbdc140533e6a910bU, 0x3c5145663deab6d3U, 0x3e56ed6b3d3f9292U,
  0x3e3986cb3df0fd8bU, 0x3e307facbdb6812dU, 0xbe8ca8443bbe37bfU, 0xbe012029bd9aafd8U,
  0xbd5881a8be24742dU, 0xbe1744ae3d429704U, 0xbd290235bdfe4a8fU, 0xbcfc859b3ce8b899U,
  0x3d595eb9be06a257U, 0xbd31b7be3e177420U, 0x3b3635e93e67f5c8U, 0x3da398033e3bef76U,
  0xbe833ef9bda93071U, 0xbc8f5da5be11ad59U, 0xbeb4ceea3e507357U, 0xbc89b87e3e1de71bU,
  0x3d7d266ebdd739b3U, 0x3e0d3b5a3d29b20cU, 0xbca136b93d6ae14eU, 0x3e4a80e7bd2105bcU,
  0x3e0a9889bd3f3ef8U, 0x3d52d55dbc20f318U, 0xbdd2e412bed17affU, 0x3e0e6d0d3e5f2100U,
  0x3cd09a4c3dad7f8eU, 0x3db14518be0fe247U, 0xbe3e1c9d3d88f5b6U, 0x3e68fe88be13f0eeU,
  0xbd930d0bbc0ffa55U, 0x3e58b7edbd2090c2U, 0xbe30b544be54b9a7U, 0x3e6bb342bb83c284U,
  0x3cf0c75fbed2ea0eU, 0x3d81c39bbcdadd54U, 0xbdf25e89be0313ecU, 0x3e491eed3dcd050dU,
  0xbe0d9164bdc0cf5aU, 0x3e910da9bde8a331U, 0xbe0c08ad3c94b55eU, 0xbcd6af8a3e6c5f4dU,
  0xbd37bf78bea630cdU, 0x3e84939f3da766fcU, 0xbd871226bda0d068U, 0x3e1baa173e885c0bU,
  0xbdcdc5d1be2be5d4U, 0x3e962d94bb85c1dcU, 0xbe9d5d4fbe11ab4fU, 0x3f084f2b3e6c25b3U,
  0xbe83aa16bd9516c2U, 0x3e28a5583f032198U, 0xbe8cc658be83cdf0U, 0xbf1189c53f55b070U,
  0xbdc123523f96e239U, 0x3f247bcb3eb1e0b6U, 0xbdbe3a47befad7d3U, 0xbf555dc4beb8b16eU,
  0xbe2566393d9760aeU, 0x3e5d00e13ec68dd5U, 0x3d6b37133f083652U, 0x3e5aaf923d2053d7U,
  0x3d76fb323ca0f62dU, 0x3d5730e13dd1fc13U, 0xbd1b47a83cab5b4cU, 0x3cf5aa803db067d1U,
  0x3d1f67f23da1c688U, 0x3dc46ccfbca94911U, 0x3e0453943b38561cU, 0xbd81e84f3be627e1U,
  0xbec5010e3d5d2829U, 0x3d03b9febd12f94fU, 0xbc9fe77b3e2a82a8U, 0x3e35fdcebdc39f12U,
  0x3deb2217bd1b4f4dU, 0xbdc63f0a3d979457U, 0x3e0756d7bd422a9eU, 0xbc21d3283da92f81U,
  0xbe1ce9263e269b9aU, 0x3e3098dcbd8a366dU, 0x3db861793d4836adU, 0x3d9bff88bc364e07U,
  0x396d8e573de56bdbU, 0xbbdb61c53d842bc8U, 0xbb86e073bdfe7243U, 0xbe213b8c3d70ae0cU,
  0xbd8a4f0cbca0a3a4U, 0x3d6654923e636df1U, 0xbe0c34ea3d7037f0U, 0xbe36ba7c3d339a41U,
  0xbe3e42f03ca68240U, 0xbe33d5433cbc3089U, 0x3dabbb8fbd41cc2eU, 0xbd4324de3b83085cU,
  0xbd6cb1e43d81c73cU, 0xbd5fdf2e3d6e849bU, 0xbdd390263c630ac2U, 0xbe67f2f53e632f76U,
  0x3e66dcb8bdb52812U, 0x3d93c5de3c632829U, 0x3dbd4d6dbd7f5a62U, 0xbcf4ea4f3e332318U,
  0xbd550a20bdfacedeU, 0x3d6dcf6a3e4720a0U, 0x3e07cf4fbc9d9afcU, 0x3c1392173e549cdcU,
  0x3e12368abbd8c8b3U, 0xbe43a7da3e26112bU, 0xbe184dfdbe390e1bU, 0xbe43b77a3d23a6ceU,
  0x3e10c7a5bda9262fU, 0xbd73d2683e0b3f46U, 0x3cc8423ebc9d6f1dU, 0xbe0581803e107d8cU,
  0xbe2ed89abe1fcf35U, 0x3ddcff913d6e3bbbU, 0xbde253cabdf56031U, 0xbe7326c83eb25de2U,
  0xbd8ddff8bdc9ef41U, 0xbc3860fe3e004384U, 0xbda2a9943dd51cd9U, 0xbe3f8770be126ce7U,
  0x3e46a705be067437U, 0xbd5ef9183e7bc020U, 0xbe210ae83bf5d923U, 0xbe999e473e76948bU,
  0x3eed496b401629ecU, 0xbe1d21df3e7591a3U, 0x3dddc8a2bb7e242bU, 0xbe3213c53eb0e4e5U,
  0xbfa6724d3ea2800aU, 0xbc7ab82fbf0d5b7eU, 0x3e7cc4de3ef05029U, 0x3e068c81be69fec4U,
  0x3e600f113e76f53bU, 0xbd2d8ee03d4c7f02U, 0x3d72f23dbce20241U, 0xbd82b68bbd5dd3c6U,
  0xbd93af41be0f0e38U, 0xbd7de01e3e1a72b4U, 0xbd0a8ba7bbc4aa3cU, 0x3d0c523e3c8739c8U,
  0x3d37293abe20f0bdU, 0xbccccac6bc9b2454U, 0x3e22606abe33c98eU, 0x3d86f81c3c4098bdU,
  0xbdcd6309bca56fefU, 0xbb199614bb589be6U, 0xbd1da6f9bd2c0860U, 0xbdb79d7e3dccfd05U,
  0x3e0425dcbcb1dbeaU, 0x3cc12e393d88e9deU, 0xbe342621bc4f3fe1U, 0x3da87f4dbdf55ac1U,
  0x3e506403bd179401U, 0xbdbb0a163cce623cU, 0xbe027cb73d57debbU, 0xbcff1f1bbd0f0a67U,
  0xbcabbeafbe0b2a40U, 0xbd2172c03e2f1c68U, 0xbcb4d898bd5b0c6eU, 0x3c70a16bb98b1604U,
  0x3cb4887a3db15eeeU, 0x3db58bf3be1259d4U, 0x3cfe7debbcda0d23U, 0x3e1424b5bcbcd6a3U,
  0xbc0b3cd3bd8a370cU, 0x3d44c78f3c8f27cbU, 0xbc874f4a3e11612fU, 0x3e079e9a3dcb91c1U,
  0x3dc4a2bdbdddfcacU, 0xbd3c6ee1bd9cd02fU, 0x3dd506eebd622712U, 0xbd878019be6e841fU,
  0xbd82d1bbbc3c80a3U, 0x3e271263bd954ab8U, 0xbe6da6903dee171aU, 0x3e0c4430bc9930e9U,
  0x3d9106c93df71636U, 0xbd0b6cb0be449d80U, 0xbce3d4a73d82abccU, 0x3da074a13dd9f0a0U,
  0x3ab2839b3db38f24U, 0x3e5ea6b5bdaaee95U, 0x3df1156b3e8b5bb5U, 0x3aadd24abd44b32fU,
  0xbd1766883d2be453U, 0x3df39124beb902efU, 0xbe49429d3e78dc27U, 0xbd973cd6bc82f7f2U,
  0x3cbf100f3e750068U, 0x3d091856be257047U, 0xbc21c6483c06ee9bU, 0x3c398aa2be8280cfU,
  0xbc983c8b3e8ec079U, 0x3d67bc99be0503e2U, 0xbda862793e1714ddU, 0x3e5751f8bebd0b74U,
  0xbceae76c3e138348U, 0xbf7f2774bfd9c402U, 0x3ec310553f9c3a2aU, 0x3e1d16b6be554801U,
  0x3ecb12d63dc00d49U, 0x3e91eef23e74eecaU, 0x3ebd87903db2bae6U, 0xbf1a0603bf08b6d7U,
  0xbe16c7803e0a5661U, 0x3d86ed3a3db392a4U, 0xbcb59a65bc94f994U, 0x3e264970bcb786ddU,
  0x3d1275b1bc88b147U, 0x3dddf3c5bba67158U, 0xbd0d721a3c9678bfU, 0x3d5d50a33bb498b0U,
  0xbdb7fa433cd97b35U, 0x3d6807b73c2c4c1eU, 0x3c00a6943a100776U, 0x3dd5417f3b364192U,
  0x3da7be473c2ad888U, 0x3db1bc9e3d5da63aU, 0xbd7ec76abcf473dfU, 0xbd3793f43d1c205eU,
  0xbd3b07593c286783U, 0x3d663c0a3c64399eU, 0xbd06a3823d80c560U, 0x3db0398fbc64649aU,
  0x3b3fd6133dc6ba92U, 0x3deb60eabdaa8021U, 0x3d7194aabcfb2016U, 0xbc9de33bbb0acb01U,
  0x3d82acf13dbb52d7U, 0xbc8571d3bc4acc1eU, 0xbb53c38e3e2a249cU, 0x3bc10abbbd6899b1U,
  0x3e09e08d3cb2d27cU, 0x3da5adce3d7e6237U, 0x3cf5d25bbc2f5f87U, 0xbb8846583ce78872U,
  0x3e078b303d335b40U, 0x3b0cf3fdbd4789b9U, 0x3dced5e83af4bd8dU, 0xbcb672603b85cee5U,
  0x3d9780a03d6b3c4aU, 0x3d87829d3b63404aU, 0x3d4633e83d8ab458U, 0xbca3725cbd15dbe9U,
  0x3df63df13d2f2cb0U, 0x3d94e2423c479ef4U, 0x3da5b1a43daad45dU, 0xbdd04e6ebc278bbdU,
  0x3db5b5ff3e0059feU, 0xbd6c0e21bdac31ddU, 0x3e06730a3d9ddc67U, 0xbe06f362bc97f196U,
  0x3d4e6ac93db60a0aU, 0xbd04fc54be30fe9bU, 0x3e3353723cb4ea1dU, 0xbcfe11bcbe1c5c61U,
  0x3df081713e0fab37U, 0xbd535a16bd2dbe7eU, 0x3e42f8b83dfe9122U, 0xbd643c9ebdb7d204U,
  0x3e61ecdf3d489284U, 0xbe052ad2bdee43bdU, 0x3e7fc2423d700bd2U, 0xbd8017bbbdd761c2U,
  0x3e626a853db7829aU, 0xbd7865f1bd9c4ee7U, 0x3e2e6a9d3d84da05U, 0xbe352b45bdc58f8bU,
  0x3ea454d53dc09062U, 0xbe3bb70cbd04ead9U, 0x3ed7822a3f82c36dU, 0x3ddce4cfbecfd1c7U,
  0x3ea13a98be3c97ccU, 0x3cbd42213ebcaff2U, 0xbec43f2e3da65468U, 0xbe50f8ecbe992500U,
  0xbdb4736c3e1e4098U, 0xbd3323f83ebb2d40U, 0x3ea098f43cec1628U, 0xbdbae0a7bd9168e1U,
  0xbe7c90893d29ffacU, 0x3e640baebcaa2fb4U, 0xbea5210fbdaf92a3U, 0xbe1f290c3cff126eU,
  0x3da301fa3d55ad5fU, 0x3e7310d5becc8b7cU, 0xbd9c17c73d7b482fU, 0xbe0102683dacbf72U,
  0x3d7416ee3dfbdcc1U, 0xbe60cd20be04b3d9U, 0x3e54b14b3c978b45U, 0xbce528f53e3e62d3U,
  0x3e4cf2ce3e4cb2a0U, 0x3db92df9be54a263U, 0x3d2a31bc3db4d12aU, 0xbb9025633b958de1U,
  0xbe888e11be3b5801U, 0x3e232f90bc2c78c9U, 0xbe08f23b3c66cf91U, 0x3e5fe54dbea51437U,
  0x3d8e9e28bddc32a4U, 0x3e851f973e36848bU, 0x3e598ae93e0b9d1cU, 0x3c469a12be1bd0caU,
  0xbe93cfeebe5e2f34U, 0xbc39bb3dbd2abedcU, 0x3e33b8763cdf15d4U, 0xbc3931963ddb7879U,
  0xbe0d27c83e53eaa8U, 0xbdffd6a03e0f6a17U, 0x3be5fb94bd27dcd5U, 0xbdd72660bd89138dU,
  0x3cec996d3da81877U, 0x3e2aeacabe4f3c37U, 0xbdaa48a03e6fa604U, 0x3d609ea5be0c3e8cU,
  0xbe25c39ebdfd0b2cU, 0xbde2f1033eeecc08U, 0xbdbd91aabe3aa33eU, 0xbdcb98b93e15d666U,
  0x3e32c0c8bda1c3f8U, 0xbe80887c3d2639bdU, 0xbdd155c2be1729faU, 0x3ef5af583e46f493U,
  0xbe3a02acbd664e7fU, 0xbe756f023e4d7488U, 0xbcf9b5cabeadce34U, 0xbe837692be654795U,
  0x3e12eb84be64e5ebU, 0xbd87ff0bbad51a87U, 0x3da4294abdd40506U, 0x3e0f20ab3ed26b8cU,
  0xbc8e7c91be0157ceU, 0x3db44fc83d96e444U, 0xbe7f937fbe0a2d45U, 0xbcb7cc1a3e36c62bU,
  0x3da539383db6e824U, 0xbdcb63353e3ad871U, 0x3eb01133bf05d518U, 0x3e1df7e2bec0f0a8U,
  0x3e1590c4be1f5694U, 0xbc6748333efd4aadU, 0x3de78c5c3e18be85U, 0x3f2820413dab721aU,
  0xbd4638003ec76f82U, 0x3b14f2f83f5db244U, 0x3ac97a0bbf6f13dcU, 0x3cab51153f0dda57U,
  0x3e248873bf24ea58U, 0xbe70392e3b03ff3bU, 0xbeb7700fbe34f357U, 0xbf13893bbdf9a247U,
  0x3ed9de283d185485U, 0x3d88e664bdcad1c0U, 0x3de3d1023e58e635U, 0xbd2a38cdbcef27dbU,
